{
  "version": "1.0",
  "truncation": null,
  "padding": null,
  "added_tokens": [
    {
      "id": 0,
      "content": "<|endoftext|>",
      "single_word": false,
      "lstrip": false,
      "rstrip": false,
      "normalized": false,
      "special": true
    }
  ],
  "normalizer": null,
  "pre_tokenizer": {
    "type": "ByteLevel",
    "add_prefix_space": false,
    "trim_offsets": true,
    "use_regex": false
  },
  "post_processor": null,
  "decoder": {
    "type": "ByteLevel",
    "add_prefix_space": true,
    "trim_offsets": true,
    "use_regex": true
  },
  "model": {
    "type": "BPE",
    "dropout": null,
    "unk_token": null,
    "continuing_subword_prefix": null,
    "end_of_word_suffix": null,
    "fuse_unk": false,
    "vocab": {
      "<|endoftext|>": 0,
      "!": 1,
      "\"": 2,
      "#": 3,
      "$": 4,
      "%": 5,
      "&": 6,
      "'": 7,
      "(": 8,
      ")": 9,
      "*": 10,
      "+": 11,
      ",": 12,
      "-": 13,
      ".": 14,
      "/": 15,
      "0": 16,
      "1": 17,
      "2": 18,
      "3": 19,
      "4": 20,
      "5": 21,
      "6": 22,
      "7": 23,
      "8": 24,
      "9": 25,
      ":": 26,
      ";": 27,
      "<": 28,
      "=": 29,
      ">": 30,
      "?": 31,
      "@": 32,
      "A": 33,
      "B": 34,
      "C": 35,
      "D": 36,
      "E": 37,
      "F": 38,
      "G": 39,
      "H": 40,
      "I": 41,
      "J": 42,
      "K": 43,
      "L": 44,
      "M": 45,
      "N": 46,
      "O": 47,
      "P": 48,
      "Q": 49,
      "R": 50,
      "S": 51,
      "T": 52,
      "U": 53,
      "V": 54,
      "W": 55,
      "X": 56,
      "Y": 57,
      "Z": 58,
      "[": 59,
      "\\": 60,
      "]": 61,
      "^": 62,
      "_": 63,
      "`": 64,
      "a": 65,
      "b": 66,
      "c": 67,
      "d": 68,
      "e": 69,
      "f": 70,
      "g": 71,
      "h": 72,
      "i": 73,
      "j": 74,
      "k": 75,
      "l": 76,
      "m": 77,
      "n": 78,
      "o": 79,
      "p": 80,
      "q": 81,
      "r": 82,
      "s": 83,
      "t": 84,
      "u": 85,
      "v": 86,
      "w": 87,
      "x": 88,
      "y": 89,
      "z": 90,
      "{": 91,
      "|": 92,
      "}": 93,
      "~": 94,
      "¡": 95,
      "¢": 96,
      "£": 97,
      "¤": 98,
      "¥": 99,
      "¦": 100,
      "§": 101,
      "¨": 102,
      "©": 103,
      "ª": 104,
      "«": 105,
      "¬": 106,
      "®": 107,
      "¯": 108,
      "°": 109,
      "±": 110,
      "²": 111,
      "³": 112,
      "´": 113,
      "µ": 114,
      "¶": 115,
      "·": 116,
      "¸": 117,
      "¹": 118,
      "º": 119,
      "»": 120,
      "¼": 121,
      "½": 122,
      "¾": 123,
      "¿": 124,
      "À": 125,
      "Á": 126,
      "Â": 127,
      "Ã": 128,
      "Ä": 129,
      "Å": 130,
      "Æ": 131,
      "Ç": 132,
      "È": 133,
      "É": 134,
      "Ê": 135,
      "Ë": 136,
      "Ì": 137,
      "Í": 138,
      "Î": 139,
      "Ï": 140,
      "Ð": 141,
      "Ñ": 142,
      "Ò": 143,
      "Ó": 144,
      "Ô": 145,
      "Õ": 146,
      "Ö": 147,
      "×": 148,
      "Ø": 149,
      "Ù": 150,
      "Ú": 151,
      "Û": 152,
      "Ü": 153,
      "Ý": 154,
      "Þ": 155,
      "ß": 156,
      "à": 157,
      "á": 158,
      "â": 159,
      "ã": 160,
      "ä": 161,
      "å": 162,
      "æ": 163,
      "ç": 164,
      "è": 165,
      "é": 166,
      "ê": 167,
      "ë": 168,
      "ì": 169,
      "í": 170,
      "î": 171,
      "ï": 172,
      "ð": 173,
      "ñ": 174,
      "ò": 175,
      "ó": 176,
      "ô": 177,
      "õ": 178,
      "ö": 179,
      "÷": 180,
      "ø": 181,
      "ù": 182,
      "ú": 183,
      "û": 184,
      "ü": 185,
      "ý": 186,
      "þ": 187,
      "ÿ": 188,
      "Ā": 189,
      "ā": 190,
      "Ă": 191,
      "ă": 192,
      "Ą": 193,
      "ą": 194,
      "Ć": 195,
      "ć": 196,
      "Ĉ": 197,
      "ĉ": 198,
      "Ċ": 199,
      "ċ": 200,
      "Č": 201,
      "č": 202,
      "Ď": 203,
      "ď": 204,
      "Đ": 205,
      "đ": 206,
      "Ē": 207,
      "ē": 208,
      "Ĕ": 209,
      "ĕ": 210,
      "Ė": 211,
      "ė": 212,
      "Ę": 213,
      "ę": 214,
      "Ě": 215,
      "ě": 216,
      "Ĝ": 217,
      "ĝ": 218,
      "Ğ": 219,
      "ğ": 220,
      "Ġ": 221,
      "ġ": 222,
      "Ģ": 223,
      "ģ": 224,
      "Ĥ": 225,
      "ĥ": 226,
      "Ħ": 227,
      "ħ": 228,
      "Ĩ": 229,
      "ĩ": 230,
      "Ī": 231,
      "ī": 232,
      "Ĭ": 233,
      "ĭ": 234,
      "Į": 235,
      "į": 236,
      "İ": 237,
      "ı": 238,
      "Ĳ": 239,
      "ĳ": 240,
      "Ĵ": 241,
      "ĵ": 242,
      "Ķ": 243,
      "ķ": 244,
      "ĸ": 245,
      "Ĺ": 246,
      "ĺ": 247,
      "Ļ": 248,
      "ļ": 249,
      "Ľ": 250,
      "ľ": 251,
      "Ŀ": 252,
      "ŀ": 253,
      "Ł": 254,
      "ł": 255,
      "Ń": 256,
      "Â¡": 257,
      "Â¢": 258,
      "Â£": 259,
      "Â¤": 260,
      "Â¥": 261,
      "Â¦": 262,
      "Â§": 263,
      "Â¨": 264,
      "Â©": 265,
      "Âª": 266,
      "Â«": 267,
      "Â¬": 268,
      "Â®": 269,
      "Â¯": 270,
      "Â°": 271,
      "Â±": 272,
      "Â²": 273,
      "Â³": 274,
      "Â´": 275,
      "Âµ": 276,
      "Â¶": 277,
      "Â·": 278,
      "Â¸": 279,
      "Â¹": 280,
      "Âº": 281,
      "Â»": 282,
      "Â¼": 283,
      "Â½": 284,
      "Â¾": 285,
      "Â¿": 286,
      "Ã¡": 287,
      "Ã¢": 288,
      "Ã£": 289,
      "Ã¤": 290,
      "Ã¥": 291,
      "Ã¦": 292,
      "Ã§": 293,
      "Ã¨": 294,
      "Ã©": 295,
      "Ãª": 296,
      "Ã«": 297,
      "Ã¬": 298,
      "Ã®": 299,
      "Ã¯": 300,
      "Ã°": 301,
      "Ã±": 302,
      "Ã²": 303,
      "Ã³": 304,
      "Ã´": 305,
      "Ãµ": 306,
      "Ã¶": 307,
      "Ã·": 308,
      "Ã¸": 309,
      "Ã¹": 310,
      "Ãº": 311,
      "Ã»": 312,
      "Ã¼": 313,
      "Ã½": 314,
      "Ã¾": 315,
      "Ã¿": 316,
      "ÃĢ": 317,
      "Ãģ": 318,
      "ÃĤ": 319,
      "Ãĥ": 320,
      "ÃĦ": 321,
      "Ãħ": 322,
      "ÃĨ": 323,
      "Ãĩ": 324,
      "ÃĪ": 325,
      "Ãī": 326,
      "ÃĬ": 327,
      "Ãĭ": 328,
      "ÃĮ": 329,
      "Ãį": 330,
      "Ãİ": 331,
      "Ãı": 332,
      "ÃĲ": 333,
      "Ãĳ": 334,
      "ÃĴ": 335,
      "Ãĵ": 336,
      "ÃĶ": 337,
      "Ãķ": 338,
      "Ãĸ": 339,
      "ÃĹ": 340,
      "Ãĺ": 341,
      "ÃĻ": 342,
      "Ãļ": 343,
      "ÃĽ": 344,
      "Ãľ": 345,
      "ÃĿ": 346,
      "Ãŀ": 347,
      "ÃŁ": 348,
      "Ãł": 349,
      "ÃŃ": 350,
      "Ä¡": 351,
      "Ä¢": 352,
      "Ä£": 353,
      "Ä¤": 354,
      "Ä¥": 355,
      "Ä¦": 356,
      "Ä§": 357,
      "Ä¨": 358,
      "Ä©": 359,
      "Äª": 360,
      "Ä«": 361,
      "Ä¬": 362,
      "Ä®": 363,
      "Ä¯": 364,
      "Ä°": 365,
      "Ä±": 366,
      "Ä²": 367,
      "Ä³": 368,
      "Ä´": 369,
      "Äµ": 370,
      "Ä¶": 371,
      "Ä·": 372,
      "Ä¸": 373,
      "Ä¹": 374,
      "Äº": 375,
      "Ä»": 376,
      "Ä¼": 377,
      "Ä½": 378,
      "Ä¾": 379,
      "Ä¿": 380,
      "ÄĢ": 381,
      "Äģ": 382,
      "ÄĤ": 383,
      "Äĥ": 384,
      "ÄĦ": 385,
      "Äħ": 386,
      "ÄĨ": 387,
      "Äĩ": 388,
      "ÄĪ": 389,
      "Äī": 390,
      "ÄĬ": 391,
      "Äĭ": 392,
      "ÄĮ": 393,
      "Äį": 394,
      "Äİ": 395,
      "Äı": 396,
      "ÄĲ": 397,
      "Äĳ": 398,
      "ÄĴ": 399,
      "Äĵ": 400,
      "ÄĶ": 401,
      "Äķ": 402,
      "Äĸ": 403,
      "ÄĹ": 404,
      "Äĺ": 405,
      "ÄĻ": 406,
      "Äļ": 407,
      "ÄĽ": 408,
      "Äľ": 409,
      "ÄĿ": 410,
      "Äŀ": 411,
      "ÄŁ": 412,
      "Äł": 413,
      "ÄŃ": 414,
      "ÅĢ": 415,
      "Åģ": 416,
      "ÅĤ": 417,
      "Åĥ": 418,
      "!!": 419,
      "!\"": 420,
      "!#": 421,
      "!$": 422,
      "!%": 423,
      "!&": 424,
      "!'": 425,
      "!(": 426,
      "!)": 427,
      "!*": 428,
      "!+": 429,
      "!,": 430,
      "!-": 431,
      "!.": 432,
      "!/": 433,
      "!0": 434,
      "!1": 435,
      "!2": 436,
      "!3": 437,
      "!4": 438,
      "!5": 439,
      "!6": 440,
      "!7": 441,
      "!8": 442,
      "!9": 443,
      "!:": 444,
      "!;": 445,
      "!<": 446,
      "!=": 447,
      "!>": 448,
      "!?": 449,
      "!@": 450,
      "!A": 451,
      "!B": 452,
      "!C": 453,
      "!D": 454,
      "!E": 455,
      "!F": 456,
      "!G": 457,
      "!H": 458,
      "!I": 459,
      "!J": 460,
      "!K": 461,
      "!L": 462,
      "!M": 463,
      "!N": 464,
      "!O": 465,
      "!P": 466,
      "!Q": 467,
      "!R": 468,
      "!S": 469,
      "!T": 470,
      "!U": 471,
      "!V": 472,
      "!W": 473,
      "!X": 474,
      "!Y": 475,
      "!Z": 476,
      "![": 477,
      "!\\": 478,
      "!]": 479,
      "!^": 480,
      "!_": 481,
      "!`": 482,
      "!a": 483,
      "!b": 484,
      "!c": 485,
      "!d": 486,
      "!e": 487,
      "!f": 488,
      "!g": 489,
      "!h": 490,
      "!i": 491,
      "!j": 492,
      "!k": 493,
      "!l": 494,
      "!m": 495,
      "!n": 496,
      "!o": 497,
      "!p": 498,
      "!q": 499,
      "!r": 500,
      "!s": 501,
      "!t": 502,
      "!u": 503,
      "!v": 504,
      "!w": 505,
      "!x": 506,
      "!y": 507,
      "!z": 508,
      "!{": 509,
      "!|": 510,
      "!}": 511,
      "!~": 512,
      "!Â¡": 513,
      "!Â¢": 514,
      "!Â£": 515,
      "!Â¤": 516,
      "!Â¥": 517,
      "!Â¦": 518,
      "!Â§": 519,
      "!Â¨": 520,
      "!Â©": 521,
      "!Âª": 522,
      "!Â«": 523,
      "!Â¬": 524,
      "!Â®": 525,
      "!Â¯": 526,
      "!Â°": 527,
      "!Â±": 528,
      "!Â²": 529,
      "!Â³": 530,
      "!Â´": 531,
      "!Âµ": 532,
      "!Â¶": 533,
      "!Â·": 534,
      "!Â¸": 535,
      "!Â¹": 536,
      "!Âº": 537,
      "!Â»": 538,
      "!Â¼": 539,
      "!Â½": 540,
      "!Â¾": 541,
      "!Â¿": 542,
      "!Ã¡": 543,
      "!Ã¢": 544,
      "!Ã£": 545,
      "!Ã¤": 546,
      "!Ã¥": 547,
      "!Ã¦": 548,
      "!Ã§": 549,
      "!Ã¨": 550,
      "!Ã©": 551,
      "!Ãª": 552,
      "!Ã«": 553,
      "!Ã¬": 554,
      "!Ã®": 555,
      "!Ã¯": 556,
      "!Ã°": 557,
      "!Ã±": 558,
      "!Ã²": 559,
      "!Ã³": 560,
      "!Ã´": 561,
      "!Ãµ": 562,
      "!Ã¶": 563,
      "!Ã·": 564,
      "!Ã¸": 565,
      "!Ã¹": 566,
      "!Ãº": 567,
      "!Ã»": 568,
      "!Ã¼": 569,
      "!Ã½": 570,
      "!Ã¾": 571,
      "!Ã¿": 572,
      "!ÃĢ": 573,
      "!Ãģ": 574,
      "!ÃĤ": 575,
      "!Ãĥ": 576,
      "!ÃĦ": 577,
      "!Ãħ": 578,
      "!ÃĨ": 579,
      "!Ãĩ": 580,
      "!ÃĪ": 581,
      "!Ãī": 582,
      "!ÃĬ": 583,
      "!Ãĭ": 584,
      "!ÃĮ": 585,
      "!Ãį": 586,
      "!Ãİ": 587,
      "!Ãı": 588,
      "!ÃĲ": 589,
      "!Ãĳ": 590,
      "!ÃĴ": 591,
      "!Ãĵ": 592,
      "!ÃĶ": 593,
      "!Ãķ": 594,
      "!Ãĸ": 595,
      "!ÃĹ": 596,
      "!Ãĺ": 597,
      "!ÃĻ": 598,
      "!Ãļ": 599,
      "!ÃĽ": 600,
      "!Ãľ": 601,
      "!ÃĿ": 602,
      "!Ãŀ": 603,
      "!ÃŁ": 604,
      "!Ãł": 605,
      "!ÃŃ": 606,
      "!Ä¡": 607,
      "!Ä¢": 608,
      "!Ä£": 609,
      "!Ä¤": 610,
      "!Ä¥": 611,
      "!Ä¦": 612,
      "!Ä§": 613,
      "!Ä¨": 614,
      "!Ä©": 615,
      "!Äª": 616,
      "!Ä«": 617,
      "!Ä¬": 618,
      "!Ä®": 619,
      "!Ä¯": 620,
      "!Ä°": 621,
      "!Ä±": 622,
      "!Ä²": 623,
      "!Ä³": 624,
      "!Ä´": 625,
      "!Äµ": 626,
      "!Ä¶": 627,
      "!Ä·": 628,
      "!Ä¸": 629,
      "!Ä¹": 630,
      "!Äº": 631,
      "!Ä»": 632,
      "!Ä¼": 633,
      "!Ä½": 634,
      "!Ä¾": 635,
      "!Ä¿": 636,
      "!ÄĢ": 637,
      "!Äģ": 638,
      "!ÄĤ": 639,
      "!Äĥ": 640,
      "!ÄĦ": 641,
      "!Äħ": 642,
      "!ÄĨ": 643,
      "!Äĩ": 644,
      "!ÄĪ": 645,
      "!Äī": 646,
      "!ÄĬ": 647,
      "!Äĭ": 648,
      "!ÄĮ": 649,
      "!Äį": 650,
      "!Äİ": 651,
      "!Äı": 652,
      "!ÄĲ": 653,
      "!Äĳ": 654,
      "!ÄĴ": 655,
      "!Äĵ": 656,
      "!ÄĶ": 657,
      "!Äķ": 658,
      "!Äĸ": 659,
      "!ÄĹ": 660,
      "!Äĺ": 661,
      "!ÄĻ": 662,
      "!Äļ": 663,
      "!ÄĽ": 664,
      "!Äľ": 665,
      "!ÄĿ": 666,
      "!Äŀ": 667,
      "!ÄŁ": 668,
      "!Äł": 669,
      "!ÄŃ": 670,
      "!ÅĢ": 671,
      "!Åģ": 672,
      "!ÅĤ": 673,
      "!Åĥ": 674,
      "\"!": 675,
      "\"\"": 676,
      "\"#": 677,
      "\"$": 678,
      "\"%": 679,
      "\"&": 680,
      "\"'": 681,
      "\"(": 682,
      "\")": 683,
      "\"*": 684,
      "\"+": 685,
      "\",": 686,
      "\"-": 687,
      "\".": 688,
      "\"/": 689,
      "\"0": 690,
      "\"1": 691,
      "\"2": 692,
      "\"3": 693,
      "\"4": 694,
      "\"5": 695,
      "\"6": 696,
      "\"7": 697,
      "\"8": 698,
      "\"9": 699,
      "\":": 700,
      "\";": 701,
      "\"<": 702,
      "\"=": 703,
      "\">": 704,
      "\"?": 705,
      "\"@": 706,
      "\"A": 707,
      "\"B": 708,
      "\"C": 709,
      "\"D": 710,
      "\"E": 711,
      "\"F": 712,
      "\"G": 713,
      "\"H": 714,
      "\"I": 715,
      "\"J": 716,
      "\"K": 717,
      "\"L": 718,
      "\"M": 719,
      "\"N": 720,
      "\"O": 721,
      "\"P": 722,
      "\"Q": 723,
      "\"R": 724,
      "\"S": 725,
      "\"T": 726,
      "\"U": 727,
      "\"V": 728,
      "\"W": 729,
      "\"X": 730,
      "\"Y": 731,
      "\"Z": 732,
      "\"[": 733,
      "\"\\": 734,
      "\"]": 735,
      "\"^": 736,
      "\"_": 737,
      "\"`": 738,
      "\"a": 739,
      "\"b": 740,
      "\"c": 741,
      "\"d": 742,
      "\"e": 743,
      "\"f": 744,
      "\"g": 745,
      "\"h": 746,
      "\"i": 747,
      "\"j": 748,
      "\"k": 749,
      "\"l": 750,
      "\"m": 751,
      "\"n": 752,
      "\"o": 753,
      "\"p": 754,
      "\"q": 755,
      "\"r": 756,
      "\"s": 757,
      "\"t": 758,
      "\"u": 759,
      "\"v": 760,
      "\"w": 761,
      "\"x": 762,
      "\"y": 763,
      "\"z": 764,
      "\"{": 765,
      "\"|": 766,
      "\"}": 767,
      "\"~": 768,
      "\"Â¡": 769,
      "\"Â¢": 770,
      "\"Â£": 771,
      "\"Â¤": 772,
      "\"Â¥": 773,
      "\"Â¦": 774,
      "\"Â§": 775,
      "\"Â¨": 776,
      "\"Â©": 777,
      "\"Âª": 778,
      "\"Â«": 779,
      "\"Â¬": 780,
      "\"Â®": 781,
      "\"Â¯": 782,
      "\"Â°": 783,
      "\"Â±": 784,
      "\"Â²": 785,
      "\"Â³": 786,
      "\"Â´": 787,
      "\"Âµ": 788,
      "\"Â¶": 789,
      "\"Â·": 790,
      "\"Â¸": 791,
      "\"Â¹": 792,
      "\"Âº": 793,
      "\"Â»": 794,
      "\"Â¼": 795,
      "\"Â½": 796,
      "\"Â¾": 797,
      "\"Â¿": 798,
      "\"Ã¡": 799,
      "\"Ã¢": 800,
      "\"Ã£": 801,
      "\"Ã¤": 802,
      "\"Ã¥": 803,
      "\"Ã¦": 804,
      "\"Ã§": 805,
      "\"Ã¨": 806,
      "\"Ã©": 807,
      "\"Ãª": 808,
      "\"Ã«": 809,
      "\"Ã¬": 810,
      "\"Ã®": 811,
      "\"Ã¯": 812,
      "\"Ã°": 813,
      "\"Ã±": 814,
      "\"Ã²": 815,
      "\"Ã³": 816,
      "\"Ã´": 817,
      "\"Ãµ": 818,
      "\"Ã¶": 819,
      "\"Ã·": 820,
      "\"Ã¸": 821,
      "\"Ã¹": 822,
      "\"Ãº": 823,
      "\"Ã»": 824,
      "\"Ã¼": 825,
      "\"Ã½": 826,
      "\"Ã¾": 827,
      "\"Ã¿": 828,
      "\"ÃĢ": 829,
      "\"Ãģ": 830,
      "\"ÃĤ": 831,
      "\"Ãĥ": 832,
      "\"ÃĦ": 833,
      "\"Ãħ": 834,
      "\"ÃĨ": 835,
      "\"Ãĩ": 836,
      "\"ÃĪ": 837,
      "\"Ãī": 838,
      "\"ÃĬ": 839,
      "\"Ãĭ": 840,
      "\"ÃĮ": 841,
      "\"Ãį": 842,
      "\"Ãİ": 843,
      "\"Ãı": 844,
      "\"ÃĲ": 845,
      "\"Ãĳ": 846,
      "\"ÃĴ": 847,
      "\"Ãĵ": 848,
      "\"ÃĶ": 849,
      "\"Ãķ": 850,
      "\"Ãĸ": 851,
      "\"ÃĹ": 852,
      "\"Ãĺ": 853,
      "\"ÃĻ": 854,
      "\"Ãļ": 855,
      "\"ÃĽ": 856,
      "\"Ãľ": 857,
      "\"ÃĿ": 858,
      "\"Ãŀ": 859,
      "\"ÃŁ": 860,
      "\"Ãł": 861,
      "\"ÃŃ": 862,
      "\"Ä¡": 863,
      "\"Ä¢": 864,
      "\"Ä£": 865,
      "\"Ä¤": 866,
      "\"Ä¥": 867,
      "\"Ä¦": 868,
      "\"Ä§": 869,
      "\"Ä¨": 870,
      "\"Ä©": 871,
      "\"Äª": 872,
      "\"Ä«": 873,
      "\"Ä¬": 874,
      "\"Ä®": 875,
      "\"Ä¯": 876,
      "\"Ä°": 877,
      "\"Ä±": 878,
      "\"Ä²": 879,
      "\"Ä³": 880,
      "\"Ä´": 881,
      "\"Äµ": 882,
      "\"Ä¶": 883,
      "\"Ä·": 884,
      "\"Ä¸": 885,
      "\"Ä¹": 886,
      "\"Äº": 887,
      "\"Ä»": 888,
      "\"Ä¼": 889,
      "\"Ä½": 890,
      "\"Ä¾": 891,
      "\"Ä¿": 892,
      "\"ÄĢ": 893,
      "\"Äģ": 894,
      "\"ÄĤ": 895,
      "\"Äĥ": 896,
      "\"ÄĦ": 897,
      "\"Äħ": 898,
      "\"ÄĨ": 899,
      "\"Äĩ": 900,
      "\"ÄĪ": 901,
      "\"Äī": 902,
      "\"ÄĬ": 903,
      "\"Äĭ": 904,
      "\"ÄĮ": 905,
      "\"Äį": 906,
      "\"Äİ": 907,
      "\"Äı": 908,
      "\"ÄĲ": 909,
      "\"Äĳ": 910,
      "\"ÄĴ": 911,
      "\"Äĵ": 912,
      "\"ÄĶ": 913,
      "\"Äķ": 914,
      "\"Äĸ": 915,
      "\"ÄĹ": 916,
      "\"Äĺ": 917,
      "\"ÄĻ": 918,
      "\"Äļ": 919,
      "\"ÄĽ": 920,
      "\"Äľ": 921,
      "\"ÄĿ": 922,
      "\"Äŀ": 923,
      "\"ÄŁ": 924,
      "\"Äł": 925,
      "\"ÄŃ": 926,
      "\"ÅĢ": 927,
      "\"Åģ": 928,
      "\"ÅĤ": 929,
      "\"Åĥ": 930,
      "#!": 931,
      "#\"": 932,
      "##": 933,
      "#$": 934,
      "#%": 935,
      "#&": 936,
      "#'": 937,
      "#(": 938,
      "#)": 939,
      "#*": 940,
      "#+": 941,
      "#,": 942,
      "#-": 943,
      "#.": 944,
      "#/": 945,
      "#0": 946,
      "#1": 947,
      "#2": 948,
      "#3": 949,
      "#4": 950,
      "#5": 951,
      "#6": 952,
      "#7": 953,
      "#8": 954,
      "#9": 955,
      "#:": 956,
      "#;": 957,
      "#<": 958,
      "#=": 959,
      "#>": 960,
      "#?": 961,
      "#@": 962,
      "#A": 963,
      "#B": 964,
      "#C": 965,
      "#D": 966,
      "#E": 967,
      "#F": 968,
      "#G": 969,
      "#H": 970,
      "#I": 971,
      "#J": 972,
      "#K": 973,
      "#L": 974,
      "#M": 975,
      "#N": 976,
      "#O": 977,
      "#P": 978,
      "#Q": 979,
      "#R": 980,
      "#S": 981,
      "#T": 982,
      "#U": 983,
      "#V": 984,
      "#W": 985,
      "#X": 986,
      "#Y": 987,
      "#Z": 988,
      "#[": 989,
      "#\\": 990,
      "#]": 991,
      "#^": 992,
      "#_": 993,
      "#`": 994,
      "#a": 995,
      "#b": 996,
      "#c": 997,
      "#d": 998,
      "#e": 999,
      "#f": 1000,
      "#g": 1001,
      "#h": 1002,
      "#i": 1003,
      "#j": 1004,
      "#k": 1005,
      "#l": 1006,
      "#m": 1007,
      "#n": 1008,
      "#o": 1009,
      "#p": 1010,
      "#q": 1011,
      "#r": 1012,
      "#s": 1013,
      "#t": 1014,
      "#u": 1015,
      "#v": 1016,
      "#w": 1017,
      "#x": 1018,
      "#y": 1019,
      "#z": 1020,
      "#{": 1021,
      "#|": 1022,
      "#}": 1023,
      "#~": 1024,
      "#Â¡": 1025,
      "#Â¢": 1026,
      "#Â£": 1027,
      "#Â¤": 1028,
      "#Â¥": 1029,
      "#Â¦": 1030,
      "#Â§": 1031,
      "#Â¨": 1032,
      "#Â©": 1033,
      "#Âª": 1034,
      "#Â«": 1035,
      "#Â¬": 1036,
      "#Â®": 1037,
      "#Â¯": 1038,
      "#Â°": 1039,
      "#Â±": 1040,
      "#Â²": 1041,
      "#Â³": 1042,
      "#Â´": 1043,
      "#Âµ": 1044,
      "#Â¶": 1045,
      "#Â·": 1046,
      "#Â¸": 1047,
      "#Â¹": 1048,
      "#Âº": 1049,
      "#Â»": 1050,
      "#Â¼": 1051,
      "#Â½": 1052,
      "#Â¾": 1053,
      "#Â¿": 1054,
      "#Ã¡": 1055,
      "#Ã¢": 1056,
      "#Ã£": 1057,
      "#Ã¤": 1058,
      "#Ã¥": 1059,
      "#Ã¦": 1060,
      "#Ã§": 1061,
      "#Ã¨": 1062,
      "#Ã©": 1063,
      "#Ãª": 1064,
      "#Ã«": 1065,
      "#Ã¬": 1066,
      "#Ã®": 1067,
      "#Ã¯": 1068,
      "#Ã°": 1069,
      "#Ã±": 1070,
      "#Ã²": 1071,
      "#Ã³": 1072,
      "#Ã´": 1073,
      "#Ãµ": 1074,
      "#Ã¶": 1075,
      "#Ã·": 1076,
      "#Ã¸": 1077,
      "#Ã¹": 1078,
      "#Ãº": 1079,
      "#Ã»": 1080,
      "#Ã¼": 1081,
      "#Ã½": 1082,
      "#Ã¾": 1083,
      "#Ã¿": 1084,
      "#ÃĢ": 1085,
      "#Ãģ": 1086,
      "#ÃĤ": 1087,
      "#Ãĥ": 1088,
      "#ÃĦ": 1089,
      "#Ãħ": 1090,
      "#ÃĨ": 1091,
      "#Ãĩ": 1092,
      "#ÃĪ": 1093,
      "#Ãī": 1094,
      "#ÃĬ": 1095,
      "#Ãĭ": 1096,
      "#ÃĮ": 1097,
      "#Ãį": 1098,
      "#Ãİ": 1099,
      "#Ãı": 1100,
      "#ÃĲ": 1101,
      "#Ãĳ": 1102,
      "#ÃĴ": 1103,
      "#Ãĵ": 1104,
      "#ÃĶ": 1105,
      "#Ãķ": 1106,
      "#Ãĸ": 1107,
      "#ÃĹ": 1108,
      "#Ãĺ": 1109,
      "#ÃĻ": 1110,
      "#Ãļ": 1111,
      "#ÃĽ": 1112,
      "#Ãľ": 1113,
      "#ÃĿ": 1114,
      "#Ãŀ": 1115,
      "#ÃŁ": 1116,
      "#Ãł": 1117,
      "#ÃŃ": 1118,
      "#Ä¡": 1119,
      "#Ä¢": 1120,
      "#Ä£": 1121,
      "#Ä¤": 1122,
      "#Ä¥": 1123,
      "#Ä¦": 1124,
      "#Ä§": 1125,
      "#Ä¨": 1126,
      "#Ä©": 1127,
      "#Äª": 1128,
      "#Ä«": 1129,
      "#Ä¬": 1130,
      "#Ä®": 1131,
      "#Ä¯": 1132,
      "#Ä°": 1133,
      "#Ä±": 1134,
      "#Ä²": 1135,
      "#Ä³": 1136,
      "#Ä´": 1137,
      "#Äµ": 1138,
      "#Ä¶": 1139,
      "#Ä·": 1140,
      "#Ä¸": 1141,
      "#Ä¹": 1142,
      "#Äº": 1143,
      "#Ä»": 1144,
      "#Ä¼": 1145,
      "#Ä½": 1146,
      "#Ä¾": 1147,
      "#Ä¿": 1148,
      "#ÄĢ": 1149,
      "#Äģ": 1150,
      "#ÄĤ": 1151,
      "#Äĥ": 1152,
      "#ÄĦ": 1153,
      "#Äħ": 1154,
      "#ÄĨ": 1155,
      "#Äĩ": 1156,
      "#ÄĪ": 1157,
      "#Äī": 1158,
      "#ÄĬ": 1159,
      "#Äĭ": 1160,
      "#ÄĮ": 1161,
      "#Äį": 1162,
      "#Äİ": 1163,
      "#Äı": 1164,
      "#ÄĲ": 1165,
      "#Äĳ": 1166,
      "#ÄĴ": 1167,
      "#Äĵ": 1168,
      "#ÄĶ": 1169,
      "#Äķ": 1170,
      "#Äĸ": 1171,
      "#ÄĹ": 1172,
      "#Äĺ": 1173,
      "#ÄĻ": 1174,
      "#Äļ": 1175,
      "#ÄĽ": 1176,
      "#Äľ": 1177,
      "#ÄĿ": 1178,
      "#Äŀ": 1179,
      "#ÄŁ": 1180,
      "#Äł": 1181,
      "#ÄŃ": 1182,
      "#ÅĢ": 1183,
      "#Åģ": 1184,
      "#ÅĤ": 1185,
      "#Åĥ": 1186,
      "$!": 1187,
      "$\"": 1188,
      "$#": 1189,
      "$$": 1190,
      "$%": 1191,
      "$&": 1192,
      "$'": 1193,
      "$(": 1194,
      "$)": 1195,
      "$*": 1196,
      "$+": 1197,
      "$,": 1198,
      "$-": 1199,
      "$.": 1200,
      "$/": 1201,
      "$0": 1202,
      "$1": 1203,
      "$2": 1204,
      "$3": 1205,
      "$4": 1206,
      "$5": 1207,
      "$6": 1208,
      "$7": 1209,
      "$8": 1210,
      "$9": 1211,
      "$:": 1212,
      "$;": 1213,
      "$<": 1214,
      "$=": 1215,
      "$>": 1216,
      "$?": 1217,
      "$@": 1218,
      "$A": 1219,
      "$B": 1220,
      "$C": 1221,
      "$D": 1222,
      "$E": 1223,
      "$F": 1224,
      "$G": 1225,
      "$H": 1226,
      "$I": 1227,
      "$J": 1228,
      "$K": 1229,
      "$L": 1230,
      "$M": 1231,
      "$N": 1232,
      "$O": 1233,
      "$P": 1234,
      "$Q": 1235,
      "$R": 1236,
      "$S": 1237,
      "$T": 1238,
      "$U": 1239,
      "$V": 1240,
      "$W": 1241,
      "$X": 1242,
      "$Y": 1243,
      "$Z": 1244,
      "$[": 1245,
      "$\\": 1246,
      "$]": 1247,
      "$^": 1248,
      "$_": 1249,
      "$`": 1250,
      "$a": 1251,
      "$b": 1252,
      "$c": 1253,
      "$d": 1254,
      "$e": 1255,
      "$f": 1256,
      "$g": 1257,
      "$h": 1258,
      "$i": 1259,
      "$j": 1260,
      "$k": 1261,
      "$l": 1262,
      "$m": 1263,
      "$n": 1264,
      "$o": 1265,
      "$p": 1266,
      "$q": 1267,
      "$r": 1268,
      "$s": 1269,
      "$t": 1270,
      "$u": 1271,
      "$v": 1272,
      "$w": 1273,
      "$x": 1274,
      "$y": 1275,
      "$z": 1276,
      "${": 1277,
      "$|": 1278,
      "$}": 1279,
      "$~": 1280,
      "$Â¡": 1281,
      "$Â¢": 1282,
      "$Â£": 1283,
      "$Â¤": 1284,
      "$Â¥": 1285,
      "$Â¦": 1286,
      "$Â§": 1287,
      "$Â¨": 1288,
      "$Â©": 1289,
      "$Âª": 1290,
      "$Â«": 1291,
      "$Â¬": 1292,
      "$Â®": 1293,
      "$Â¯": 1294,
      "$Â°": 1295,
      "$Â±": 1296,
      "$Â²": 1297,
      "$Â³": 1298,
      "$Â´": 1299,
      "$Âµ": 1300,
      "$Â¶": 1301,
      "$Â·": 1302,
      "$Â¸": 1303,
      "$Â¹": 1304,
      "$Âº": 1305,
      "$Â»": 1306,
      "$Â¼": 1307,
      "$Â½": 1308,
      "$Â¾": 1309,
      "$Â¿": 1310,
      "$Ã¡": 1311,
      "$Ã¢": 1312,
      "$Ã£": 1313,
      "$Ã¤": 1314,
      "$Ã¥": 1315,
      "$Ã¦": 1316,
      "$Ã§": 1317,
      "$Ã¨": 1318,
      "$Ã©": 1319,
      "$Ãª": 1320,
      "$Ã«": 1321,
      "$Ã¬": 1322,
      "$Ã®": 1323,
      "$Ã¯": 1324,
      "$Ã°": 1325,
      "$Ã±": 1326,
      "$Ã²": 1327,
      "$Ã³": 1328,
      "$Ã´": 1329,
      "$Ãµ": 1330,
      "$Ã¶": 1331,
      "$Ã·": 1332,
      "$Ã¸": 1333,
      "$Ã¹": 1334,
      "$Ãº": 1335,
      "$Ã»": 1336,
      "$Ã¼": 1337,
      "$Ã½": 1338,
      "$Ã¾": 1339,
      "$Ã¿": 1340,
      "$ÃĢ": 1341,
      "$Ãģ": 1342,
      "$ÃĤ": 1343,
      "$Ãĥ": 1344,
      "$ÃĦ": 1345,
      "$Ãħ": 1346,
      "$ÃĨ": 1347,
      "$Ãĩ": 1348,
      "$ÃĪ": 1349,
      "$Ãī": 1350,
      "$ÃĬ": 1351,
      "$Ãĭ": 1352,
      "$ÃĮ": 1353,
      "$Ãį": 1354,
      "$Ãİ": 1355,
      "$Ãı": 1356,
      "$ÃĲ": 1357,
      "$Ãĳ": 1358,
      "$ÃĴ": 1359,
      "$Ãĵ": 1360,
      "$ÃĶ": 1361,
      "$Ãķ": 1362,
      "$Ãĸ": 1363,
      "$ÃĹ": 1364,
      "$Ãĺ": 1365,
      "$ÃĻ": 1366,
      "$Ãļ": 1367,
      "$ÃĽ": 1368,
      "$Ãľ": 1369,
      "$ÃĿ": 1370,
      "$Ãŀ": 1371,
      "$ÃŁ": 1372,
      "$Ãł": 1373,
      "$ÃŃ": 1374,
      "$Ä¡": 1375,
      "$Ä¢": 1376,
      "$Ä£": 1377,
      "$Ä¤": 1378,
      "$Ä¥": 1379,
      "$Ä¦": 1380,
      "$Ä§": 1381,
      "$Ä¨": 1382,
      "$Ä©": 1383,
      "$Äª": 1384,
      "$Ä«": 1385,
      "$Ä¬": 1386,
      "$Ä®": 1387,
      "$Ä¯": 1388,
      "$Ä°": 1389,
      "$Ä±": 1390,
      "$Ä²": 1391,
      "$Ä³": 1392,
      "$Ä´": 1393,
      "$Äµ": 1394,
      "$Ä¶": 1395,
      "$Ä·": 1396,
      "$Ä¸": 1397,
      "$Ä¹": 1398,
      "$Äº": 1399,
      "$Ä»": 1400,
      "$Ä¼": 1401,
      "$Ä½": 1402,
      "$Ä¾": 1403,
      "$Ä¿": 1404,
      "$ÄĢ": 1405,
      "$Äģ": 1406,
      "$ÄĤ": 1407,
      "$Äĥ": 1408,
      "$ÄĦ": 1409,
      "$Äħ": 1410,
      "$ÄĨ": 1411,
      "$Äĩ": 1412,
      "$ÄĪ": 1413,
      "$Äī": 1414,
      "$ÄĬ": 1415,
      "$Äĭ": 1416,
      "$ÄĮ": 1417,
      "$Äį": 1418,
      "$Äİ": 1419,
      "$Äı": 1420,
      "$ÄĲ": 1421,
      "$Äĳ": 1422,
      "$ÄĴ": 1423,
      "$Äĵ": 1424,
      "$ÄĶ": 1425,
      "$Äķ": 1426,
      "$Äĸ": 1427,
      "$ÄĹ": 1428,
      "$Äĺ": 1429,
      "$ÄĻ": 1430,
      "$Äļ": 1431,
      "$ÄĽ": 1432,
      "$Äľ": 1433,
      "$ÄĿ": 1434,
      "$Äŀ": 1435,
      "$ÄŁ": 1436,
      "$Äł": 1437,
      "$ÄŃ": 1438,
      "$ÅĢ": 1439,
      "$Åģ": 1440,
      "$ÅĤ": 1441,
      "$Åĥ": 1442,
      "%!": 1443,
      "%\"": 1444,
      "%#": 1445,
      "%$": 1446,
      "%%": 1447,
      "%&": 1448,
      "%'": 1449,
      "%(": 1450,
      "%)": 1451,
      "%*": 1452,
      "%+": 1453,
      "%,": 1454,
      "%-": 1455,
      "%.": 1456,
      "%/": 1457,
      "%0": 1458,
      "%1": 1459,
      "%2": 1460,
      "%3": 1461,
      "%4": 1462,
      "%5": 1463,
      "%6": 1464,
      "%7": 1465,
      "%8": 1466,
      "%9": 1467,
      "%:": 1468,
      "%;": 1469,
      "%<": 1470,
      "%=": 1471,
      "%>": 1472,
      "%?": 1473,
      "%@": 1474,
      "%A": 1475,
      "%B": 1476,
      "%C": 1477,
      "%D": 1478,
      "%E": 1479,
      "%F": 1480,
      "%G": 1481,
      "%H": 1482,
      "%I": 1483,
      "%J": 1484,
      "%K": 1485,
      "%L": 1486,
      "%M": 1487,
      "%N": 1488,
      "%O": 1489,
      "%P": 1490,
      "%Q": 1491,
      "%R": 1492,
      "%S": 1493,
      "%T": 1494,
      "%U": 1495,
      "%V": 1496,
      "%W": 1497,
      "%X": 1498,
      "%Y": 1499,
      "%Z": 1500,
      "%[": 1501,
      "%\\": 1502,
      "%]": 1503,
      "%^": 1504,
      "%_": 1505,
      "%`": 1506,
      "%a": 1507,
      "%b": 1508,
      "%c": 1509,
      "%d": 1510,
      "%e": 1511,
      "%f": 1512,
      "%g": 1513,
      "%h": 1514,
      "%i": 1515,
      "%j": 1516,
      "%k": 1517,
      "%l": 1518,
      "%m": 1519,
      "%n": 1520,
      "%o": 1521,
      "%p": 1522,
      "%q": 1523,
      "%r": 1524,
      "%s": 1525,
      "%t": 1526,
      "%u": 1527,
      "%v": 1528,
      "%w": 1529,
      "%x": 1530,
      "%y": 1531,
      "%z": 1532,
      "%{": 1533,
      "%|": 1534,
      "%}": 1535,
      "%~": 1536,
      "%Â¡": 1537,
      "%Â¢": 1538,
      "%Â£": 1539,
      "%Â¤": 1540,
      "%Â¥": 1541,
      "%Â¦": 1542,
      "%Â§": 1543,
      "%Â¨": 1544,
      "%Â©": 1545,
      "%Âª": 1546,
      "%Â«": 1547,
      "%Â¬": 1548,
      "%Â®": 1549,
      "%Â¯": 1550,
      "%Â°": 1551,
      "%Â±": 1552,
      "%Â²": 1553,
      "%Â³": 1554,
      "%Â´": 1555,
      "%Âµ": 1556,
      "%Â¶": 1557,
      "%Â·": 1558,
      "%Â¸": 1559,
      "%Â¹": 1560,
      "%Âº": 1561,
      "%Â»": 1562,
      "%Â¼": 1563,
      "%Â½": 1564,
      "%Â¾": 1565,
      "%Â¿": 1566,
      "%Ã¡": 1567,
      "%Ã¢": 1568,
      "%Ã£": 1569,
      "%Ã¤": 1570,
      "%Ã¥": 1571,
      "%Ã¦": 1572,
      "%Ã§": 1573,
      "%Ã¨": 1574,
      "%Ã©": 1575,
      "%Ãª": 1576,
      "%Ã«": 1577,
      "%Ã¬": 1578,
      "%Ã®": 1579,
      "%Ã¯": 1580,
      "%Ã°": 1581,
      "%Ã±": 1582,
      "%Ã²": 1583,
      "%Ã³": 1584,
      "%Ã´": 1585,
      "%Ãµ": 1586,
      "%Ã¶": 1587,
      "%Ã·": 1588,
      "%Ã¸": 1589,
      "%Ã¹": 1590,
      "%Ãº": 1591,
      "%Ã»": 1592,
      "%Ã¼": 1593,
      "%Ã½": 1594,
      "%Ã¾": 1595,
      "%Ã¿": 1596,
      "%ÃĢ": 1597,
      "%Ãģ": 1598,
      "%ÃĤ": 1599,
      "%Ãĥ": 1600,
      "%ÃĦ": 1601,
      "%Ãħ": 1602,
      "%ÃĨ": 1603,
      "%Ãĩ": 1604,
      "%ÃĪ": 1605,
      "%Ãī": 1606,
      "%ÃĬ": 1607,
      "%Ãĭ": 1608,
      "%ÃĮ": 1609,
      "%Ãį": 1610,
      "%Ãİ": 1611,
      "%Ãı": 1612,
      "%ÃĲ": 1613,
      "%Ãĳ": 1614,
      "%ÃĴ": 1615,
      "%Ãĵ": 1616,
      "%ÃĶ": 1617,
      "%Ãķ": 1618,
      "%Ãĸ": 1619,
      "%ÃĹ": 1620,
      "%Ãĺ": 1621,
      "%ÃĻ": 1622,
      "%Ãļ": 1623,
      "%ÃĽ": 1624,
      "%Ãľ": 1625,
      "%ÃĿ": 1626,
      "%Ãŀ": 1627,
      "%ÃŁ": 1628,
      "%Ãł": 1629,
      "%ÃŃ": 1630,
      "%Ä¡": 1631,
      "%Ä¢": 1632,
      "%Ä£": 1633,
      "%Ä¤": 1634,
      "%Ä¥": 1635,
      "%Ä¦": 1636,
      "%Ä§": 1637,
      "%Ä¨": 1638,
      "%Ä©": 1639,
      "%Äª": 1640,
      "%Ä«": 1641,
      "%Ä¬": 1642,
      "%Ä®": 1643,
      "%Ä¯": 1644,
      "%Ä°": 1645,
      "%Ä±": 1646,
      "%Ä²": 1647,
      "%Ä³": 1648,
      "%Ä´": 1649,
      "%Äµ": 1650,
      "%Ä¶": 1651,
      "%Ä·": 1652,
      "%Ä¸": 1653,
      "%Ä¹": 1654,
      "%Äº": 1655,
      "%Ä»": 1656,
      "%Ä¼": 1657,
      "%Ä½": 1658,
      "%Ä¾": 1659,
      "%Ä¿": 1660,
      "%ÄĢ": 1661,
      "%Äģ": 1662,
      "%ÄĤ": 1663,
      "%Äĥ": 1664,
      "%ÄĦ": 1665,
      "%Äħ": 1666,
      "%ÄĨ": 1667,
      "%Äĩ": 1668,
      "%ÄĪ": 1669,
      "%Äī": 1670,
      "%ÄĬ": 1671,
      "%Äĭ": 1672,
      "%ÄĮ": 1673,
      "%Äį": 1674,
      "%Äİ": 1675,
      "%Äı": 1676,
      "%ÄĲ": 1677,
      "%Äĳ": 1678,
      "%ÄĴ": 1679,
      "%Äĵ": 1680,
      "%ÄĶ": 1681,
      "%Äķ": 1682,
      "%Äĸ": 1683,
      "%ÄĹ": 1684,
      "%Äĺ": 1685,
      "%ÄĻ": 1686,
      "%Äļ": 1687,
      "%ÄĽ": 1688,
      "%Äľ": 1689,
      "%ÄĿ": 1690,
      "%Äŀ": 1691,
      "%ÄŁ": 1692,
      "%Äł": 1693,
      "%ÄŃ": 1694,
      "%ÅĢ": 1695,
      "%Åģ": 1696,
      "%ÅĤ": 1697,
      "%Åĥ": 1698,
      "&!": 1699,
      "&\"": 1700,
      "&#": 1701,
      "&$": 1702,
      "&%": 1703,
      "&&": 1704,
      "&'": 1705,
      "&(": 1706,
      "&)": 1707,
      "&*": 1708,
      "&+": 1709,
      "&,": 1710,
      "&-": 1711,
      "&.": 1712,
      "&/": 1713,
      "&0": 1714,
      "&1": 1715,
      "&2": 1716,
      "&3": 1717,
      "&4": 1718,
      "&5": 1719,
      "&6": 1720,
      "&7": 1721,
      "&8": 1722,
      "&9": 1723,
      "&:": 1724,
      "&;": 1725,
      "&<": 1726,
      "&=": 1727,
      "&>": 1728,
      "&?": 1729,
      "&@": 1730,
      "&A": 1731,
      "&B": 1732,
      "&C": 1733,
      "&D": 1734,
      "&E": 1735,
      "&F": 1736,
      "&G": 1737,
      "&H": 1738,
      "&I": 1739,
      "&J": 1740,
      "&K": 1741,
      "&L": 1742,
      "&M": 1743,
      "&N": 1744,
      "&O": 1745,
      "&P": 1746,
      "&Q": 1747,
      "&R": 1748,
      "&S": 1749,
      "&T": 1750,
      "&U": 1751,
      "&V": 1752,
      "&W": 1753,
      "&X": 1754,
      "&Y": 1755,
      "&Z": 1756,
      "&[": 1757,
      "&\\": 1758,
      "&]": 1759,
      "&^": 1760,
      "&_": 1761,
      "&`": 1762,
      "&a": 1763,
      "&b": 1764,
      "&c": 1765,
      "&d": 1766,
      "&e": 1767,
      "&f": 1768,
      "&g": 1769,
      "&h": 1770,
      "&i": 1771,
      "&j": 1772,
      "&k": 1773,
      "&l": 1774,
      "&m": 1775,
      "&n": 1776,
      "&o": 1777,
      "&p": 1778,
      "&q": 1779,
      "&r": 1780,
      "&s": 1781,
      "&t": 1782,
      "&u": 1783,
      "&v": 1784,
      "&w": 1785,
      "&x": 1786,
      "&y": 1787,
      "&z": 1788,
      "&{": 1789,
      "&|": 1790,
      "&}": 1791,
      "&~": 1792,
      "&Â¡": 1793,
      "&Â¢": 1794,
      "&Â£": 1795,
      "&Â¤": 1796,
      "&Â¥": 1797,
      "&Â¦": 1798,
      "&Â§": 1799,
      "&Â¨": 1800,
      "&Â©": 1801,
      "&Âª": 1802,
      "&Â«": 1803,
      "&Â¬": 1804,
      "&Â®": 1805,
      "&Â¯": 1806,
      "&Â°": 1807,
      "&Â±": 1808,
      "&Â²": 1809,
      "&Â³": 1810,
      "&Â´": 1811,
      "&Âµ": 1812,
      "&Â¶": 1813,
      "&Â·": 1814,
      "&Â¸": 1815,
      "&Â¹": 1816,
      "&Âº": 1817,
      "&Â»": 1818,
      "&Â¼": 1819,
      "&Â½": 1820,
      "&Â¾": 1821,
      "&Â¿": 1822,
      "&Ã¡": 1823,
      "&Ã¢": 1824,
      "&Ã£": 1825,
      "&Ã¤": 1826,
      "&Ã¥": 1827,
      "&Ã¦": 1828,
      "&Ã§": 1829,
      "&Ã¨": 1830,
      "&Ã©": 1831,
      "&Ãª": 1832,
      "&Ã«": 1833,
      "&Ã¬": 1834,
      "&Ã®": 1835,
      "&Ã¯": 1836,
      "&Ã°": 1837,
      "&Ã±": 1838,
      "&Ã²": 1839,
      "&Ã³": 1840,
      "&Ã´": 1841,
      "&Ãµ": 1842,
      "&Ã¶": 1843,
      "&Ã·": 1844,
      "&Ã¸": 1845,
      "&Ã¹": 1846,
      "&Ãº": 1847,
      "&Ã»": 1848,
      "&Ã¼": 1849,
      "&Ã½": 1850,
      "&Ã¾": 1851,
      "&Ã¿": 1852,
      "&ÃĢ": 1853,
      "&Ãģ": 1854,
      "&ÃĤ": 1855,
      "&Ãĥ": 1856,
      "&ÃĦ": 1857,
      "&Ãħ": 1858,
      "&ÃĨ": 1859,
      "&Ãĩ": 1860,
      "&ÃĪ": 1861,
      "&Ãī": 1862,
      "&ÃĬ": 1863,
      "&Ãĭ": 1864,
      "&ÃĮ": 1865,
      "&Ãį": 1866,
      "&Ãİ": 1867,
      "&Ãı": 1868,
      "&ÃĲ": 1869,
      "&Ãĳ": 1870,
      "&ÃĴ": 1871,
      "&Ãĵ": 1872,
      "&ÃĶ": 1873,
      "&Ãķ": 1874,
      "&Ãĸ": 1875,
      "&ÃĹ": 1876,
      "&Ãĺ": 1877,
      "&ÃĻ": 1878,
      "&Ãļ": 1879,
      "&ÃĽ": 1880,
      "&Ãľ": 1881,
      "&ÃĿ": 1882,
      "&Ãŀ": 1883,
      "&ÃŁ": 1884,
      "&Ãł": 1885,
      "&ÃŃ": 1886,
      "&Ä¡": 1887,
      "&Ä¢": 1888,
      "&Ä£": 1889,
      "&Ä¤": 1890,
      "&Ä¥": 1891,
      "&Ä¦": 1892,
      "&Ä§": 1893,
      "&Ä¨": 1894,
      "&Ä©": 1895,
      "&Äª": 1896,
      "&Ä«": 1897,
      "&Ä¬": 1898,
      "&Ä®": 1899,
      "&Ä¯": 1900,
      "&Ä°": 1901,
      "&Ä±": 1902,
      "&Ä²": 1903,
      "&Ä³": 1904,
      "&Ä´": 1905,
      "&Äµ": 1906,
      "&Ä¶": 1907,
      "&Ä·": 1908,
      "&Ä¸": 1909,
      "&Ä¹": 1910,
      "&Äº": 1911,
      "&Ä»": 1912,
      "&Ä¼": 1913,
      "&Ä½": 1914,
      "&Ä¾": 1915,
      "&Ä¿": 1916,
      "&ÄĢ": 1917,
      "&Äģ": 1918,
      "&ÄĤ": 1919,
      "&Äĥ": 1920,
      "&ÄĦ": 1921,
      "&Äħ": 1922,
      "&ÄĨ": 1923,
      "&Äĩ": 1924,
      "&ÄĪ": 1925,
      "&Äī": 1926,
      "&ÄĬ": 1927,
      "&Äĭ": 1928,
      "&ÄĮ": 1929,
      "&Äį": 1930,
      "&Äİ": 1931,
      "&Äı": 1932,
      "&ÄĲ": 1933,
      "&Äĳ": 1934,
      "&ÄĴ": 1935,
      "&Äĵ": 1936,
      "&ÄĶ": 1937,
      "&Äķ": 1938,
      "&Äĸ": 1939,
      "&ÄĹ": 1940,
      "&Äĺ": 1941,
      "&ÄĻ": 1942,
      "&Äļ": 1943,
      "&ÄĽ": 1944,
      "&Äľ": 1945,
      "&ÄĿ": 1946,
      "&Äŀ": 1947,
      "&ÄŁ": 1948,
      "&Äł": 1949,
      "&ÄŃ": 1950,
      "&ÅĢ": 1951,
      "&Åģ": 1952,
      "&ÅĤ": 1953,
      "&Åĥ": 1954,
      "'!": 1955,
      "'\"": 1956,
      "'#": 1957,
      "'$": 1958,
      "'%": 1959,
      "'&": 1960,
      "''": 1961,
      "'(": 1962,
      "')": 1963,
      "'*": 1964,
      "'+": 1965,
      "',": 1966,
      "'-": 1967,
      "'.": 1968,
      "'/": 1969,
      "'0": 1970,
      "'1": 1971,
      "'2": 1972,
      "'3": 1973,
      "'4": 1974,
      "'5": 1975,
      "'6": 1976,
      "'7": 1977,
      "'8": 1978,
      "'9": 1979,
      "':": 1980,
      "';": 1981,
      "'<": 1982,
      "'=": 1983,
      "'>": 1984,
      "'?": 1985,
      "'@": 1986,
      "'A": 1987,
      "'B": 1988,
      "'C": 1989,
      "'D": 1990,
      "'E": 1991,
      "'F": 1992,
      "'G": 1993,
      "'H": 1994,
      "'I": 1995,
      "'J": 1996,
      "'K": 1997,
      "'L": 1998,
      "'M": 1999,
      "'N": 2000,
      "'O": 2001,
      "'P": 2002,
      "'Q": 2003,
      "'R": 2004,
      "'S": 2005,
      "'T": 2006,
      "'U": 2007,
      "'V": 2008,
      "'W": 2009,
      "'X": 2010,
      "'Y": 2011,
      "'Z": 2012,
      "'[": 2013,
      "'\\": 2014,
      "']": 2015,
      "'^": 2016,
      "'_": 2017,
      "'`": 2018,
      "'a": 2019,
      "'b": 2020,
      "'c": 2021,
      "'d": 2022,
      "'e": 2023,
      "'f": 2024,
      "'g": 2025,
      "'h": 2026,
      "'i": 2027,
      "'j": 2028,
      "'k": 2029,
      "'l": 2030,
      "'m": 2031,
      "'n": 2032,
      "'o": 2033,
      "'p": 2034,
      "'q": 2035,
      "'r": 2036,
      "'s": 2037,
      "'t": 2038,
      "'u": 2039,
      "'v": 2040,
      "'w": 2041,
      "'x": 2042,
      "'y": 2043,
      "'z": 2044,
      "'{": 2045,
      "'|": 2046,
      "'}": 2047,
      "'~": 2048,
      "'Â¡": 2049,
      "'Â¢": 2050,
      "'Â£": 2051,
      "'Â¤": 2052,
      "'Â¥": 2053,
      "'Â¦": 2054,
      "'Â§": 2055,
      "'Â¨": 2056,
      "'Â©": 2057,
      "'Âª": 2058,
      "'Â«": 2059,
      "'Â¬": 2060,
      "'Â®": 2061,
      "'Â¯": 2062,
      "'Â°": 2063,
      "'Â±": 2064,
      "'Â²": 2065,
      "'Â³": 2066,
      "'Â´": 2067,
      "'Âµ": 2068,
      "'Â¶": 2069,
      "'Â·": 2070,
      "'Â¸": 2071,
      "'Â¹": 2072,
      "'Âº": 2073,
      "'Â»": 2074,
      "'Â¼": 2075,
      "'Â½": 2076,
      "'Â¾": 2077,
      "'Â¿": 2078,
      "'Ã¡": 2079,
      "'Ã¢": 2080,
      "'Ã£": 2081,
      "'Ã¤": 2082,
      "'Ã¥": 2083,
      "'Ã¦": 2084,
      "'Ã§": 2085,
      "'Ã¨": 2086,
      "'Ã©": 2087,
      "'Ãª": 2088,
      "'Ã«": 2089,
      "'Ã¬": 2090,
      "'Ã®": 2091,
      "'Ã¯": 2092,
      "'Ã°": 2093,
      "'Ã±": 2094,
      "'Ã²": 2095,
      "'Ã³": 2096,
      "'Ã´": 2097,
      "'Ãµ": 2098,
      "'Ã¶": 2099,
      "'Ã·": 2100,
      "'Ã¸": 2101,
      "'Ã¹": 2102,
      "'Ãº": 2103,
      "'Ã»": 2104,
      "'Ã¼": 2105,
      "'Ã½": 2106,
      "'Ã¾": 2107,
      "'Ã¿": 2108,
      "'ÃĢ": 2109,
      "'Ãģ": 2110,
      "'ÃĤ": 2111,
      "'Ãĥ": 2112,
      "'ÃĦ": 2113,
      "'Ãħ": 2114,
      "'ÃĨ": 2115,
      "'Ãĩ": 2116,
      "'ÃĪ": 2117,
      "'Ãī": 2118,
      "'ÃĬ": 2119,
      "'Ãĭ": 2120,
      "'ÃĮ": 2121,
      "'Ãį": 2122,
      "'Ãİ": 2123,
      "'Ãı": 2124,
      "'ÃĲ": 2125,
      "'Ãĳ": 2126,
      "'ÃĴ": 2127,
      "'Ãĵ": 2128,
      "'ÃĶ": 2129,
      "'Ãķ": 2130,
      "'Ãĸ": 2131,
      "'ÃĹ": 2132,
      "'Ãĺ": 2133,
      "'ÃĻ": 2134,
      "'Ãļ": 2135,
      "'ÃĽ": 2136,
      "'Ãľ": 2137,
      "'ÃĿ": 2138,
      "'Ãŀ": 2139,
      "'ÃŁ": 2140,
      "'Ãł": 2141,
      "'ÃŃ": 2142,
      "'Ä¡": 2143,
      "'Ä¢": 2144,
      "'Ä£": 2145,
      "'Ä¤": 2146,
      "'Ä¥": 2147,
      "'Ä¦": 2148,
      "'Ä§": 2149,
      "'Ä¨": 2150,
      "'Ä©": 2151,
      "'Äª": 2152,
      "'Ä«": 2153,
      "'Ä¬": 2154,
      "'Ä®": 2155,
      "'Ä¯": 2156,
      "'Ä°": 2157,
      "'Ä±": 2158,
      "'Ä²": 2159,
      "'Ä³": 2160,
      "'Ä´": 2161,
      "'Äµ": 2162,
      "'Ä¶": 2163,
      "'Ä·": 2164,
      "'Ä¸": 2165,
      "'Ä¹": 2166,
      "'Äº": 2167,
      "'Ä»": 2168,
      "'Ä¼": 2169,
      "'Ä½": 2170,
      "'Ä¾": 2171,
      "'Ä¿": 2172,
      "'ÄĢ": 2173,
      "'Äģ": 2174,
      "'ÄĤ": 2175,
      "'Äĥ": 2176,
      "'ÄĦ": 2177,
      "'Äħ": 2178,
      "'ÄĨ": 2179,
      "'Äĩ": 2180,
      "'ÄĪ": 2181,
      "'Äī": 2182,
      "'ÄĬ": 2183,
      "'Äĭ": 2184,
      "'ÄĮ": 2185,
      "'Äį": 2186,
      "'Äİ": 2187,
      "'Äı": 2188,
      "'ÄĲ": 2189,
      "'Äĳ": 2190,
      "'ÄĴ": 2191,
      "'Äĵ": 2192,
      "'ÄĶ": 2193,
      "'Äķ": 2194,
      "'Äĸ": 2195,
      "'ÄĹ": 2196,
      "'Äĺ": 2197,
      "'ÄĻ": 2198,
      "'Äļ": 2199,
      "'ÄĽ": 2200,
      "'Äľ": 2201,
      "'ÄĿ": 2202,
      "'Äŀ": 2203,
      "'ÄŁ": 2204,
      "'Äł": 2205,
      "'ÄŃ": 2206,
      "'ÅĢ": 2207,
      "'Åģ": 2208,
      "'ÅĤ": 2209,
      "'Åĥ": 2210,
      "(!": 2211,
      "(\"": 2212,
      "(#": 2213,
      "($": 2214,
      "(%": 2215,
      "(&": 2216,
      "('": 2217,
      "((": 2218,
      "()": 2219,
      "(*": 2220,
      "(+": 2221,
      "(,": 2222,
      "(-": 2223,
      "(.": 2224,
      "(/": 2225,
      "(0": 2226,
      "(1": 2227,
      "(2": 2228,
      "(3": 2229,
      "(4": 2230,
      "(5": 2231,
      "(6": 2232,
      "(7": 2233,
      "(8": 2234,
      "(9": 2235,
      "(:": 2236,
      "(;": 2237,
      "(<": 2238,
      "(=": 2239,
      "(>": 2240,
      "(?": 2241,
      "(@": 2242,
      "(A": 2243,
      "(B": 2244,
      "(C": 2245,
      "(D": 2246,
      "(E": 2247,
      "(F": 2248,
      "(G": 2249,
      "(H": 2250,
      "(I": 2251,
      "(J": 2252,
      "(K": 2253,
      "(L": 2254,
      "(M": 2255,
      "(N": 2256,
      "(O": 2257,
      "(P": 2258,
      "(Q": 2259,
      "(R": 2260,
      "(S": 2261,
      "(T": 2262,
      "(U": 2263,
      "(V": 2264,
      "(W": 2265,
      "(X": 2266,
      "(Y": 2267,
      "(Z": 2268,
      "([": 2269,
      "(\\": 2270,
      "(]": 2271,
      "(^": 2272,
      "(_": 2273,
      "(`": 2274,
      "(a": 2275,
      "(b": 2276,
      "(c": 2277,
      "(d": 2278,
      "(e": 2279,
      "(f": 2280,
      "(g": 2281,
      "(h": 2282,
      "(i": 2283,
      "(j": 2284,
      "(k": 2285,
      "(l": 2286,
      "(m": 2287,
      "(n": 2288,
      "(o": 2289,
      "(p": 2290,
      "(q": 2291,
      "(r": 2292,
      "(s": 2293,
      "(t": 2294,
      "(u": 2295,
      "(v": 2296,
      "(w": 2297,
      "(x": 2298,
      "(y": 2299,
      "(z": 2300,
      "({": 2301,
      "(|": 2302,
      "(}": 2303,
      "(~": 2304,
      "(Â¡": 2305,
      "(Â¢": 2306,
      "(Â£": 2307,
      "(Â¤": 2308,
      "(Â¥": 2309,
      "(Â¦": 2310,
      "(Â§": 2311,
      "(Â¨": 2312,
      "(Â©": 2313,
      "(Âª": 2314,
      "(Â«": 2315,
      "(Â¬": 2316,
      "(Â®": 2317,
      "(Â¯": 2318,
      "(Â°": 2319,
      "(Â±": 2320,
      "(Â²": 2321,
      "(Â³": 2322,
      "(Â´": 2323,
      "(Âµ": 2324,
      "(Â¶": 2325,
      "(Â·": 2326,
      "(Â¸": 2327,
      "(Â¹": 2328,
      "(Âº": 2329,
      "(Â»": 2330,
      "(Â¼": 2331,
      "(Â½": 2332,
      "(Â¾": 2333,
      "(Â¿": 2334,
      "(Ã¡": 2335,
      "(Ã¢": 2336,
      "(Ã£": 2337,
      "(Ã¤": 2338,
      "(Ã¥": 2339,
      "(Ã¦": 2340,
      "(Ã§": 2341,
      "(Ã¨": 2342,
      "(Ã©": 2343,
      "(Ãª": 2344,
      "(Ã«": 2345,
      "(Ã¬": 2346,
      "(Ã®": 2347,
      "(Ã¯": 2348,
      "(Ã°": 2349,
      "(Ã±": 2350,
      "(Ã²": 2351,
      "(Ã³": 2352,
      "(Ã´": 2353,
      "(Ãµ": 2354,
      "(Ã¶": 2355,
      "(Ã·": 2356,
      "(Ã¸": 2357,
      "(Ã¹": 2358,
      "(Ãº": 2359,
      "(Ã»": 2360,
      "(Ã¼": 2361,
      "(Ã½": 2362,
      "(Ã¾": 2363,
      "(Ã¿": 2364,
      "(ÃĢ": 2365,
      "(Ãģ": 2366,
      "(ÃĤ": 2367,
      "(Ãĥ": 2368,
      "(ÃĦ": 2369,
      "(Ãħ": 2370,
      "(ÃĨ": 2371,
      "(Ãĩ": 2372,
      "(ÃĪ": 2373,
      "(Ãī": 2374,
      "(ÃĬ": 2375,
      "(Ãĭ": 2376,
      "(ÃĮ": 2377,
      "(Ãį": 2378,
      "(Ãİ": 2379,
      "(Ãı": 2380,
      "(ÃĲ": 2381,
      "(Ãĳ": 2382,
      "(ÃĴ": 2383,
      "(Ãĵ": 2384,
      "(ÃĶ": 2385,
      "(Ãķ": 2386,
      "(Ãĸ": 2387,
      "(ÃĹ": 2388,
      "(Ãĺ": 2389,
      "(ÃĻ": 2390,
      "(Ãļ": 2391,
      "(ÃĽ": 2392,
      "(Ãľ": 2393,
      "(ÃĿ": 2394,
      "(Ãŀ": 2395,
      "(ÃŁ": 2396,
      "(Ãł": 2397,
      "(ÃŃ": 2398,
      "(Ä¡": 2399,
      "(Ä¢": 2400,
      "(Ä£": 2401,
      "(Ä¤": 2402,
      "(Ä¥": 2403,
      "(Ä¦": 2404,
      "(Ä§": 2405,
      "(Ä¨": 2406,
      "(Ä©": 2407,
      "(Äª": 2408,
      "(Ä«": 2409,
      "(Ä¬": 2410,
      "(Ä®": 2411,
      "(Ä¯": 2412,
      "(Ä°": 2413,
      "(Ä±": 2414,
      "(Ä²": 2415,
      "(Ä³": 2416,
      "(Ä´": 2417,
      "(Äµ": 2418,
      "(Ä¶": 2419,
      "(Ä·": 2420,
      "(Ä¸": 2421,
      "(Ä¹": 2422,
      "(Äº": 2423,
      "(Ä»": 2424,
      "(Ä¼": 2425,
      "(Ä½": 2426,
      "(Ä¾": 2427,
      "(Ä¿": 2428,
      "(ÄĢ": 2429,
      "(Äģ": 2430,
      "(ÄĤ": 2431,
      "(Äĥ": 2432,
      "(ÄĦ": 2433,
      "(Äħ": 2434,
      "(ÄĨ": 2435,
      "(Äĩ": 2436,
      "(ÄĪ": 2437,
      "(Äī": 2438,
      "(ÄĬ": 2439,
      "(Äĭ": 2440,
      "(ÄĮ": 2441,
      "(Äį": 2442,
      "(Äİ": 2443,
      "(Äı": 2444,
      "(ÄĲ": 2445,
      "(Äĳ": 2446,
      "(ÄĴ": 2447,
      "(Äĵ": 2448,
      "(ÄĶ": 2449,
      "(Äķ": 2450,
      "(Äĸ": 2451,
      "(ÄĹ": 2452,
      "(Äĺ": 2453,
      "(ÄĻ": 2454,
      "(Äļ": 2455,
      "(ÄĽ": 2456,
      "(Äľ": 2457,
      "(ÄĿ": 2458,
      "(Äŀ": 2459,
      "(ÄŁ": 2460,
      "(Äł": 2461,
      "(ÄŃ": 2462,
      "(ÅĢ": 2463,
      "(Åģ": 2464,
      "(ÅĤ": 2465,
      "(Åĥ": 2466,
      ")!": 2467,
      ")\"": 2468,
      ")#": 2469,
      ")$": 2470,
      ")%": 2471,
      ")&": 2472,
      ")'": 2473,
      ")(": 2474,
      "))": 2475,
      ")*": 2476,
      ")+": 2477,
      "),": 2478,
      ")-": 2479,
      ").": 2480,
      ")/": 2481,
      ")0": 2482,
      ")1": 2483,
      ")2": 2484,
      ")3": 2485,
      ")4": 2486,
      ")5": 2487,
      ")6": 2488,
      ")7": 2489,
      ")8": 2490,
      ")9": 2491,
      "):": 2492,
      ");": 2493,
      ")<": 2494,
      ")=": 2495,
      ")>": 2496,
      ")?": 2497,
      ")@": 2498,
      ")A": 2499,
      ")B": 2500,
      ")C": 2501,
      ")D": 2502,
      ")E": 2503,
      ")F": 2504,
      ")G": 2505,
      ")H": 2506,
      ")I": 2507,
      ")J": 2508,
      ")K": 2509,
      ")L": 2510,
      ")M": 2511,
      ")N": 2512,
      ")O": 2513,
      ")P": 2514,
      ")Q": 2515,
      ")R": 2516,
      ")S": 2517,
      ")T": 2518,
      ")U": 2519,
      ")V": 2520,
      ")W": 2521,
      ")X": 2522,
      ")Y": 2523,
      ")Z": 2524,
      ")[": 2525,
      ")\\": 2526,
      ")]": 2527,
      ")^": 2528,
      ")_": 2529,
      ")`": 2530,
      ")a": 2531,
      ")b": 2532,
      ")c": 2533,
      ")d": 2534,
      ")e": 2535,
      ")f": 2536,
      ")g": 2537,
      ")h": 2538,
      ")i": 2539,
      ")j": 2540,
      ")k": 2541,
      ")l": 2542,
      ")m": 2543,
      ")n": 2544,
      ")o": 2545,
      ")p": 2546,
      ")q": 2547,
      ")r": 2548,
      ")s": 2549,
      ")t": 2550,
      ")u": 2551,
      ")v": 2552,
      ")w": 2553,
      ")x": 2554,
      ")y": 2555,
      ")z": 2556,
      "){": 2557,
      ")|": 2558,
      ")}": 2559,
      ")~": 2560,
      ")Â¡": 2561,
      ")Â¢": 2562,
      ")Â£": 2563,
      ")Â¤": 2564,
      ")Â¥": 2565,
      ")Â¦": 2566,
      ")Â§": 2567,
      ")Â¨": 2568,
      ")Â©": 2569,
      ")Âª": 2570,
      ")Â«": 2571,
      ")Â¬": 2572,
      ")Â®": 2573,
      ")Â¯": 2574,
      ")Â°": 2575,
      ")Â±": 2576,
      ")Â²": 2577,
      ")Â³": 2578,
      ")Â´": 2579,
      ")Âµ": 2580,
      ")Â¶": 2581,
      ")Â·": 2582,
      ")Â¸": 2583,
      ")Â¹": 2584,
      ")Âº": 2585,
      ")Â»": 2586,
      ")Â¼": 2587,
      ")Â½": 2588,
      ")Â¾": 2589,
      ")Â¿": 2590,
      ")Ã¡": 2591,
      ")Ã¢": 2592,
      ")Ã£": 2593,
      ")Ã¤": 2594,
      ")Ã¥": 2595,
      ")Ã¦": 2596,
      ")Ã§": 2597,
      ")Ã¨": 2598,
      ")Ã©": 2599,
      ")Ãª": 2600,
      ")Ã«": 2601,
      ")Ã¬": 2602,
      ")Ã®": 2603,
      ")Ã¯": 2604,
      ")Ã°": 2605,
      ")Ã±": 2606,
      ")Ã²": 2607,
      ")Ã³": 2608,
      ")Ã´": 2609,
      ")Ãµ": 2610,
      ")Ã¶": 2611,
      ")Ã·": 2612,
      ")Ã¸": 2613,
      ")Ã¹": 2614,
      ")Ãº": 2615,
      ")Ã»": 2616,
      ")Ã¼": 2617,
      ")Ã½": 2618,
      ")Ã¾": 2619,
      ")Ã¿": 2620,
      ")ÃĢ": 2621,
      ")Ãģ": 2622,
      ")ÃĤ": 2623,
      ")Ãĥ": 2624,
      ")ÃĦ": 2625,
      ")Ãħ": 2626,
      ")ÃĨ": 2627,
      ")Ãĩ": 2628,
      ")ÃĪ": 2629,
      ")Ãī": 2630,
      ")ÃĬ": 2631,
      ")Ãĭ": 2632,
      ")ÃĮ": 2633,
      ")Ãį": 2634,
      ")Ãİ": 2635,
      ")Ãı": 2636,
      ")ÃĲ": 2637,
      ")Ãĳ": 2638,
      ")ÃĴ": 2639,
      ")Ãĵ": 2640,
      ")ÃĶ": 2641,
      ")Ãķ": 2642,
      ")Ãĸ": 2643,
      ")ÃĹ": 2644,
      ")Ãĺ": 2645,
      ")ÃĻ": 2646,
      ")Ãļ": 2647,
      ")ÃĽ": 2648,
      ")Ãľ": 2649,
      ")ÃĿ": 2650,
      ")Ãŀ": 2651,
      ")ÃŁ": 2652,
      ")Ãł": 2653,
      ")ÃŃ": 2654,
      ")Ä¡": 2655,
      ")Ä¢": 2656,
      ")Ä£": 2657,
      ")Ä¤": 2658,
      ")Ä¥": 2659,
      ")Ä¦": 2660,
      ")Ä§": 2661,
      ")Ä¨": 2662,
      ")Ä©": 2663,
      ")Äª": 2664,
      ")Ä«": 2665,
      ")Ä¬": 2666,
      ")Ä®": 2667,
      ")Ä¯": 2668,
      ")Ä°": 2669,
      ")Ä±": 2670,
      ")Ä²": 2671,
      ")Ä³": 2672,
      ")Ä´": 2673,
      ")Äµ": 2674,
      ")Ä¶": 2675,
      ")Ä·": 2676,
      ")Ä¸": 2677,
      ")Ä¹": 2678,
      ")Äº": 2679,
      ")Ä»": 2680,
      ")Ä¼": 2681,
      ")Ä½": 2682,
      ")Ä¾": 2683,
      ")Ä¿": 2684,
      ")ÄĢ": 2685,
      ")Äģ": 2686,
      ")ÄĤ": 2687,
      ")Äĥ": 2688,
      ")ÄĦ": 2689,
      ")Äħ": 2690,
      ")ÄĨ": 2691,
      ")Äĩ": 2692,
      ")ÄĪ": 2693,
      ")Äī": 2694,
      ")ÄĬ": 2695,
      ")Äĭ": 2696,
      ")ÄĮ": 2697,
      ")Äį": 2698,
      ")Äİ": 2699,
      ")Äı": 2700,
      ")ÄĲ": 2701,
      ")Äĳ": 2702,
      ")ÄĴ": 2703,
      ")Äĵ": 2704,
      ")ÄĶ": 2705,
      ")Äķ": 2706,
      ")Äĸ": 2707,
      ")ÄĹ": 2708,
      ")Äĺ": 2709,
      ")ÄĻ": 2710,
      ")Äļ": 2711,
      ")ÄĽ": 2712,
      ")Äľ": 2713,
      ")ÄĿ": 2714,
      ")Äŀ": 2715,
      ")ÄŁ": 2716,
      ")Äł": 2717,
      ")ÄŃ": 2718,
      ")ÅĢ": 2719,
      ")Åģ": 2720,
      ")ÅĤ": 2721,
      ")Åĥ": 2722,
      "*!": 2723,
      "*\"": 2724,
      "*#": 2725,
      "*$": 2726,
      "*%": 2727,
      "*&": 2728,
      "*'": 2729,
      "*(": 2730,
      "*)": 2731,
      "**": 2732,
      "*+": 2733,
      "*,": 2734,
      "*-": 2735,
      "*.": 2736,
      "*/": 2737,
      "*0": 2738,
      "*1": 2739,
      "*2": 2740,
      "*3": 2741,
      "*4": 2742,
      "*5": 2743,
      "*6": 2744,
      "*7": 2745,
      "*8": 2746,
      "*9": 2747,
      "*:": 2748,
      "*;": 2749,
      "*<": 2750,
      "*=": 2751,
      "*>": 2752,
      "*?": 2753,
      "*@": 2754,
      "*A": 2755,
      "*B": 2756,
      "*C": 2757,
      "*D": 2758,
      "*E": 2759,
      "*F": 2760,
      "*G": 2761,
      "*H": 2762,
      "*I": 2763,
      "*J": 2764,
      "*K": 2765,
      "*L": 2766,
      "*M": 2767,
      "*N": 2768,
      "*O": 2769,
      "*P": 2770,
      "*Q": 2771,
      "*R": 2772,
      "*S": 2773,
      "*T": 2774,
      "*U": 2775,
      "*V": 2776,
      "*W": 2777,
      "*X": 2778,
      "*Y": 2779,
      "*Z": 2780,
      "*[": 2781,
      "*\\": 2782,
      "*]": 2783,
      "*^": 2784,
      "*_": 2785,
      "*`": 2786,
      "*a": 2787,
      "*b": 2788,
      "*c": 2789,
      "*d": 2790,
      "*e": 2791,
      "*f": 2792,
      "*g": 2793,
      "*h": 2794,
      "*i": 2795,
      "*j": 2796,
      "*k": 2797,
      "*l": 2798,
      "*m": 2799,
      "*n": 2800,
      "*o": 2801,
      "*p": 2802,
      "*q": 2803,
      "*r": 2804,
      "*s": 2805,
      "*t": 2806,
      "*u": 2807,
      "*v": 2808,
      "*w": 2809,
      "*x": 2810,
      "*y": 2811,
      "*z": 2812,
      "*{": 2813,
      "*|": 2814,
      "*}": 2815,
      "*~": 2816,
      "*Â¡": 2817,
      "*Â¢": 2818,
      "*Â£": 2819,
      "*Â¤": 2820,
      "*Â¥": 2821,
      "*Â¦": 2822,
      "*Â§": 2823,
      "*Â¨": 2824,
      "*Â©": 2825,
      "*Âª": 2826,
      "*Â«": 2827,
      "*Â¬": 2828,
      "*Â®": 2829,
      "*Â¯": 2830,
      "*Â°": 2831,
      "*Â±": 2832,
      "*Â²": 2833,
      "*Â³": 2834,
      "*Â´": 2835,
      "*Âµ": 2836,
      "*Â¶": 2837,
      "*Â·": 2838,
      "*Â¸": 2839,
      "*Â¹": 2840,
      "*Âº": 2841,
      "*Â»": 2842,
      "*Â¼": 2843,
      "*Â½": 2844,
      "*Â¾": 2845,
      "*Â¿": 2846,
      "*Ã¡": 2847,
      "*Ã¢": 2848,
      "*Ã£": 2849,
      "*Ã¤": 2850,
      "*Ã¥": 2851,
      "*Ã¦": 2852,
      "*Ã§": 2853,
      "*Ã¨": 2854,
      "*Ã©": 2855,
      "*Ãª": 2856,
      "*Ã«": 2857,
      "*Ã¬": 2858,
      "*Ã®": 2859,
      "*Ã¯": 2860,
      "*Ã°": 2861,
      "*Ã±": 2862,
      "*Ã²": 2863,
      "*Ã³": 2864,
      "*Ã´": 2865,
      "*Ãµ": 2866,
      "*Ã¶": 2867,
      "*Ã·": 2868,
      "*Ã¸": 2869,
      "*Ã¹": 2870,
      "*Ãº": 2871,
      "*Ã»": 2872,
      "*Ã¼": 2873,
      "*Ã½": 2874,
      "*Ã¾": 2875,
      "*Ã¿": 2876,
      "*ÃĢ": 2877,
      "*Ãģ": 2878,
      "*ÃĤ": 2879,
      "*Ãĥ": 2880,
      "*ÃĦ": 2881,
      "*Ãħ": 2882,
      "*ÃĨ": 2883,
      "*Ãĩ": 2884,
      "*ÃĪ": 2885,
      "*Ãī": 2886,
      "*ÃĬ": 2887,
      "*Ãĭ": 2888,
      "*ÃĮ": 2889,
      "*Ãį": 2890,
      "*Ãİ": 2891,
      "*Ãı": 2892,
      "*ÃĲ": 2893,
      "*Ãĳ": 2894,
      "*ÃĴ": 2895,
      "*Ãĵ": 2896,
      "*ÃĶ": 2897,
      "*Ãķ": 2898,
      "*Ãĸ": 2899,
      "*ÃĹ": 2900,
      "*Ãĺ": 2901,
      "*ÃĻ": 2902,
      "*Ãļ": 2903,
      "*ÃĽ": 2904,
      "*Ãľ": 2905,
      "*ÃĿ": 2906,
      "*Ãŀ": 2907,
      "*ÃŁ": 2908,
      "*Ãł": 2909,
      "*ÃŃ": 2910,
      "*Ä¡": 2911,
      "*Ä¢": 2912,
      "*Ä£": 2913,
      "*Ä¤": 2914,
      "*Ä¥": 2915,
      "*Ä¦": 2916,
      "*Ä§": 2917,
      "*Ä¨": 2918,
      "*Ä©": 2919,
      "*Äª": 2920,
      "*Ä«": 2921,
      "*Ä¬": 2922,
      "*Ä®": 2923,
      "*Ä¯": 2924,
      "*Ä°": 2925,
      "*Ä±": 2926,
      "*Ä²": 2927,
      "*Ä³": 2928,
      "*Ä´": 2929,
      "*Äµ": 2930,
      "*Ä¶": 2931,
      "*Ä·": 2932,
      "*Ä¸": 2933,
      "*Ä¹": 2934,
      "*Äº": 2935,
      "*Ä»": 2936,
      "*Ä¼": 2937,
      "*Ä½": 2938,
      "*Ä¾": 2939,
      "*Ä¿": 2940,
      "*ÄĢ": 2941,
      "*Äģ": 2942,
      "*ÄĤ": 2943,
      "*Äĥ": 2944,
      "*ÄĦ": 2945,
      "*Äħ": 2946,
      "*ÄĨ": 2947,
      "*Äĩ": 2948,
      "*ÄĪ": 2949,
      "*Äī": 2950,
      "*ÄĬ": 2951,
      "*Äĭ": 2952,
      "*ÄĮ": 2953,
      "*Äį": 2954,
      "*Äİ": 2955,
      "*Äı": 2956,
      "*ÄĲ": 2957,
      "*Äĳ": 2958,
      "*ÄĴ": 2959,
      "*Äĵ": 2960,
      "*ÄĶ": 2961,
      "*Äķ": 2962,
      "*Äĸ": 2963,
      "*ÄĹ": 2964,
      "*Äĺ": 2965,
      "*ÄĻ": 2966,
      "*Äļ": 2967,
      "*ÄĽ": 2968,
      "*Äľ": 2969,
      "*ÄĿ": 2970,
      "*Äŀ": 2971,
      "*ÄŁ": 2972,
      "*Äł": 2973,
      "*ÄŃ": 2974,
      "*ÅĢ": 2975,
      "*Åģ": 2976,
      "*ÅĤ": 2977,
      "*Åĥ": 2978,
      "+!": 2979,
      "+\"": 2980,
      "+#": 2981,
      "+$": 2982,
      "+%": 2983,
      "+&": 2984,
      "+'": 2985,
      "+(": 2986,
      "+)": 2987,
      "+*": 2988,
      "++": 2989,
      "+,": 2990,
      "+-": 2991,
      "+.": 2992,
      "+/": 2993,
      "+0": 2994,
      "+1": 2995,
      "+2": 2996,
      "+3": 2997,
      "+4": 2998,
      "+5": 2999,
      "+6": 3000,
      "+7": 3001,
      "+8": 3002,
      "+9": 3003,
      "+:": 3004,
      "+;": 3005,
      "+<": 3006,
      "+=": 3007,
      "+>": 3008,
      "+?": 3009,
      "+@": 3010,
      "+A": 3011,
      "+B": 3012,
      "+C": 3013,
      "+D": 3014,
      "+E": 3015,
      "+F": 3016,
      "+G": 3017,
      "+H": 3018,
      "+I": 3019,
      "+J": 3020,
      "+K": 3021,
      "+L": 3022,
      "+M": 3023,
      "+N": 3024,
      "+O": 3025,
      "+P": 3026,
      "+Q": 3027,
      "+R": 3028,
      "+S": 3029,
      "+T": 3030,
      "+U": 3031,
      "+V": 3032,
      "+W": 3033,
      "+X": 3034,
      "+Y": 3035,
      "+Z": 3036,
      "+[": 3037,
      "+\\": 3038,
      "+]": 3039,
      "+^": 3040,
      "+_": 3041,
      "+`": 3042,
      "+a": 3043,
      "+b": 3044,
      "+c": 3045,
      "+d": 3046,
      "+e": 3047,
      "+f": 3048,
      "+g": 3049,
      "+h": 3050,
      "+i": 3051,
      "+j": 3052,
      "+k": 3053,
      "+l": 3054,
      "+m": 3055,
      "+n": 3056,
      "+o": 3057,
      "+p": 3058,
      "+q": 3059,
      "+r": 3060,
      "+s": 3061,
      "+t": 3062,
      "+u": 3063,
      "+v": 3064,
      "+w": 3065,
      "+x": 3066,
      "+y": 3067,
      "+z": 3068,
      "+{": 3069,
      "+|": 3070,
      "+}": 3071,
      "+~": 3072,
      "+Â¡": 3073,
      "+Â¢": 3074,
      "+Â£": 3075,
      "+Â¤": 3076,
      "+Â¥": 3077,
      "+Â¦": 3078,
      "+Â§": 3079,
      "+Â¨": 3080,
      "+Â©": 3081,
      "+Âª": 3082,
      "+Â«": 3083,
      "+Â¬": 3084,
      "+Â®": 3085,
      "+Â¯": 3086,
      "+Â°": 3087,
      "+Â±": 3088,
      "+Â²": 3089,
      "+Â³": 3090,
      "+Â´": 3091,
      "+Âµ": 3092,
      "+Â¶": 3093,
      "+Â·": 3094,
      "+Â¸": 3095,
      "+Â¹": 3096,
      "+Âº": 3097,
      "+Â»": 3098,
      "+Â¼": 3099,
      "+Â½": 3100,
      "+Â¾": 3101,
      "+Â¿": 3102,
      "+Ã¡": 3103,
      "+Ã¢": 3104,
      "+Ã£": 3105,
      "+Ã¤": 3106,
      "+Ã¥": 3107,
      "+Ã¦": 3108,
      "+Ã§": 3109,
      "+Ã¨": 3110,
      "+Ã©": 3111,
      "+Ãª": 3112,
      "+Ã«": 3113,
      "+Ã¬": 3114,
      "+Ã®": 3115,
      "+Ã¯": 3116,
      "+Ã°": 3117,
      "+Ã±": 3118,
      "+Ã²": 3119,
      "+Ã³": 3120,
      "+Ã´": 3121,
      "+Ãµ": 3122,
      "+Ã¶": 3123,
      "+Ã·": 3124,
      "+Ã¸": 3125,
      "+Ã¹": 3126,
      "+Ãº": 3127,
      "+Ã»": 3128,
      "+Ã¼": 3129,
      "+Ã½": 3130,
      "+Ã¾": 3131,
      "+Ã¿": 3132,
      "+ÃĢ": 3133,
      "+Ãģ": 3134,
      "+ÃĤ": 3135,
      "+Ãĥ": 3136,
      "+ÃĦ": 3137,
      "+Ãħ": 3138,
      "+ÃĨ": 3139,
      "+Ãĩ": 3140,
      "+ÃĪ": 3141,
      "+Ãī": 3142,
      "+ÃĬ": 3143,
      "+Ãĭ": 3144,
      "+ÃĮ": 3145,
      "+Ãį": 3146,
      "+Ãİ": 3147,
      "+Ãı": 3148,
      "+ÃĲ": 3149,
      "+Ãĳ": 3150,
      "+ÃĴ": 3151,
      "+Ãĵ": 3152,
      "+ÃĶ": 3153,
      "+Ãķ": 3154,
      "+Ãĸ": 3155,
      "+ÃĹ": 3156,
      "+Ãĺ": 3157,
      "+ÃĻ": 3158,
      "+Ãļ": 3159,
      "+ÃĽ": 3160,
      "+Ãľ": 3161,
      "+ÃĿ": 3162,
      "+Ãŀ": 3163,
      "+ÃŁ": 3164,
      "+Ãł": 3165,
      "+ÃŃ": 3166,
      "+Ä¡": 3167,
      "+Ä¢": 3168,
      "+Ä£": 3169,
      "+Ä¤": 3170,
      "+Ä¥": 3171,
      "+Ä¦": 3172,
      "+Ä§": 3173,
      "+Ä¨": 3174,
      "+Ä©": 3175,
      "+Äª": 3176,
      "+Ä«": 3177,
      "+Ä¬": 3178,
      "+Ä®": 3179,
      "+Ä¯": 3180,
      "+Ä°": 3181,
      "+Ä±": 3182,
      "+Ä²": 3183,
      "+Ä³": 3184,
      "+Ä´": 3185,
      "+Äµ": 3186,
      "+Ä¶": 3187,
      "+Ä·": 3188,
      "+Ä¸": 3189,
      "+Ä¹": 3190,
      "+Äº": 3191,
      "+Ä»": 3192,
      "+Ä¼": 3193,
      "+Ä½": 3194,
      "+Ä¾": 3195,
      "+Ä¿": 3196,
      "+ÄĢ": 3197,
      "+Äģ": 3198,
      "+ÄĤ": 3199,
      "+Äĥ": 3200,
      "+ÄĦ": 3201,
      "+Äħ": 3202,
      "+ÄĨ": 3203,
      "+Äĩ": 3204,
      "+ÄĪ": 3205,
      "+Äī": 3206,
      "+ÄĬ": 3207,
      "+Äĭ": 3208,
      "+ÄĮ": 3209,
      "+Äį": 3210,
      "+Äİ": 3211,
      "+Äı": 3212,
      "+ÄĲ": 3213,
      "+Äĳ": 3214,
      "+ÄĴ": 3215,
      "+Äĵ": 3216,
      "+ÄĶ": 3217,
      "+Äķ": 3218,
      "+Äĸ": 3219,
      "+ÄĹ": 3220,
      "+Äĺ": 3221,
      "+ÄĻ": 3222,
      "+Äļ": 3223,
      "+ÄĽ": 3224,
      "+Äľ": 3225,
      "+ÄĿ": 3226,
      "+Äŀ": 3227,
      "+ÄŁ": 3228,
      "+Äł": 3229,
      "+ÄŃ": 3230,
      "+ÅĢ": 3231,
      "+Åģ": 3232,
      "+ÅĤ": 3233,
      "+Åĥ": 3234,
      ",!": 3235,
      ",\"": 3236,
      ",#": 3237,
      ",$": 3238,
      ",%": 3239,
      ",&": 3240,
      ",'": 3241,
      ",(": 3242,
      ",)": 3243,
      ",*": 3244,
      ",+": 3245,
      ",,": 3246,
      ",-": 3247,
      ",.": 3248,
      ",/": 3249,
      ",0": 3250,
      ",1": 3251,
      ",2": 3252,
      ",3": 3253,
      ",4": 3254,
      ",5": 3255,
      ",6": 3256,
      ",7": 3257,
      ",8": 3258,
      ",9": 3259,
      ",:": 3260,
      ",;": 3261,
      ",<": 3262,
      ",=": 3263,
      ",>": 3264,
      ",?": 3265,
      ",@": 3266,
      ",A": 3267,
      ",B": 3268,
      ",C": 3269,
      ",D": 3270,
      ",E": 3271,
      ",F": 3272,
      ",G": 3273,
      ",H": 3274,
      ",I": 3275,
      ",J": 3276,
      ",K": 3277,
      ",L": 3278,
      ",M": 3279,
      ",N": 3280,
      ",O": 3281,
      ",P": 3282,
      ",Q": 3283,
      ",R": 3284,
      ",S": 3285,
      ",T": 3286,
      ",U": 3287,
      ",V": 3288,
      ",W": 3289,
      ",X": 3290,
      ",Y": 3291,
      ",Z": 3292,
      ",[": 3293,
      ",\\": 3294,
      ",]": 3295,
      ",^": 3296,
      ",_": 3297,
      ",`": 3298,
      ",a": 3299,
      ",b": 3300,
      ",c": 3301,
      ",d": 3302,
      ",e": 3303,
      ",f": 3304,
      ",g": 3305,
      ",h": 3306,
      ",i": 3307,
      ",j": 3308,
      ",k": 3309,
      ",l": 3310,
      ",m": 3311,
      ",n": 3312,
      ",o": 3313,
      ",p": 3314,
      ",q": 3315,
      ",r": 3316,
      ",s": 3317,
      ",t": 3318,
      ",u": 3319,
      ",v": 3320,
      ",w": 3321,
      ",x": 3322,
      ",y": 3323,
      ",z": 3324,
      ",{": 3325,
      ",|": 3326,
      ",}": 3327,
      ",~": 3328,
      ",Â¡": 3329,
      ",Â¢": 3330,
      ",Â£": 3331,
      ",Â¤": 3332,
      ",Â¥": 3333,
      ",Â¦": 3334,
      ",Â§": 3335,
      ",Â¨": 3336,
      ",Â©": 3337,
      ",Âª": 3338,
      ",Â«": 3339,
      ",Â¬": 3340,
      ",Â®": 3341,
      ",Â¯": 3342,
      ",Â°": 3343,
      ",Â±": 3344,
      ",Â²": 3345,
      ",Â³": 3346,
      ",Â´": 3347,
      ",Âµ": 3348,
      ",Â¶": 3349,
      ",Â·": 3350,
      ",Â¸": 3351,
      ",Â¹": 3352,
      ",Âº": 3353,
      ",Â»": 3354,
      ",Â¼": 3355,
      ",Â½": 3356,
      ",Â¾": 3357,
      ",Â¿": 3358,
      ",Ã¡": 3359,
      ",Ã¢": 3360,
      ",Ã£": 3361,
      ",Ã¤": 3362,
      ",Ã¥": 3363,
      ",Ã¦": 3364,
      ",Ã§": 3365,
      ",Ã¨": 3366,
      ",Ã©": 3367,
      ",Ãª": 3368,
      ",Ã«": 3369,
      ",Ã¬": 3370,
      ",Ã®": 3371,
      ",Ã¯": 3372,
      ",Ã°": 3373,
      ",Ã±": 3374,
      ",Ã²": 3375,
      ",Ã³": 3376,
      ",Ã´": 3377,
      ",Ãµ": 3378,
      ",Ã¶": 3379,
      ",Ã·": 3380,
      ",Ã¸": 3381,
      ",Ã¹": 3382,
      ",Ãº": 3383,
      ",Ã»": 3384,
      ",Ã¼": 3385,
      ",Ã½": 3386,
      ",Ã¾": 3387,
      ",Ã¿": 3388,
      ",ÃĢ": 3389,
      ",Ãģ": 3390,
      ",ÃĤ": 3391,
      ",Ãĥ": 3392,
      ",ÃĦ": 3393,
      ",Ãħ": 3394,
      ",ÃĨ": 3395,
      ",Ãĩ": 3396,
      ",ÃĪ": 3397,
      ",Ãī": 3398,
      ",ÃĬ": 3399,
      ",Ãĭ": 3400,
      ",ÃĮ": 3401,
      ",Ãį": 3402,
      ",Ãİ": 3403,
      ",Ãı": 3404,
      ",ÃĲ": 3405,
      ",Ãĳ": 3406,
      ",ÃĴ": 3407,
      ",Ãĵ": 3408,
      ",ÃĶ": 3409,
      ",Ãķ": 3410,
      ",Ãĸ": 3411,
      ",ÃĹ": 3412,
      ",Ãĺ": 3413,
      ",ÃĻ": 3414,
      ",Ãļ": 3415,
      ",ÃĽ": 3416,
      ",Ãľ": 3417,
      ",ÃĿ": 3418,
      ",Ãŀ": 3419,
      ",ÃŁ": 3420,
      ",Ãł": 3421,
      ",ÃŃ": 3422,
      ",Ä¡": 3423,
      ",Ä¢": 3424,
      ",Ä£": 3425,
      ",Ä¤": 3426,
      ",Ä¥": 3427,
      ",Ä¦": 3428,
      ",Ä§": 3429,
      ",Ä¨": 3430,
      ",Ä©": 3431,
      ",Äª": 3432,
      ",Ä«": 3433,
      ",Ä¬": 3434,
      ",Ä®": 3435,
      ",Ä¯": 3436,
      ",Ä°": 3437,
      ",Ä±": 3438,
      ",Ä²": 3439,
      ",Ä³": 3440,
      ",Ä´": 3441,
      ",Äµ": 3442,
      ",Ä¶": 3443,
      ",Ä·": 3444,
      ",Ä¸": 3445,
      ",Ä¹": 3446,
      ",Äº": 3447,
      ",Ä»": 3448,
      ",Ä¼": 3449,
      ",Ä½": 3450,
      ",Ä¾": 3451,
      ",Ä¿": 3452,
      ",ÄĢ": 3453,
      ",Äģ": 3454,
      ",ÄĤ": 3455,
      ",Äĥ": 3456,
      ",ÄĦ": 3457,
      ",Äħ": 3458,
      ",ÄĨ": 3459,
      ",Äĩ": 3460,
      ",ÄĪ": 3461,
      ",Äī": 3462,
      ",ÄĬ": 3463,
      ",Äĭ": 3464,
      ",ÄĮ": 3465,
      ",Äį": 3466,
      ",Äİ": 3467,
      ",Äı": 3468,
      ",ÄĲ": 3469,
      ",Äĳ": 3470,
      ",ÄĴ": 3471,
      ",Äĵ": 3472,
      ",ÄĶ": 3473,
      ",Äķ": 3474,
      ",Äĸ": 3475,
      ",ÄĹ": 3476,
      ",Äĺ": 3477,
      ",ÄĻ": 3478,
      ",Äļ": 3479,
      ",ÄĽ": 3480,
      ",Äľ": 3481,
      ",ÄĿ": 3482,
      ",Äŀ": 3483,
      ",ÄŁ": 3484,
      ",Äł": 3485,
      ",ÄŃ": 3486,
      ",ÅĢ": 3487,
      ",Åģ": 3488,
      ",ÅĤ": 3489,
      ",Åĥ": 3490,
      "-!": 3491,
      "-\"": 3492,
      "-#": 3493,
      "-$": 3494,
      "-%": 3495,
      "-&": 3496,
      "-'": 3497,
      "-(": 3498,
      "-)": 3499,
      "-*": 3500,
      "-+": 3501,
      "-,": 3502,
      "--": 3503,
      "-.": 3504,
      "-/": 3505,
      "-0": 3506,
      "-1": 3507,
      "-2": 3508,
      "-3": 3509,
      "-4": 3510,
      "-5": 3511,
      "-6": 3512,
      "-7": 3513,
      "-8": 3514,
      "-9": 3515,
      "-:": 3516,
      "-;": 3517,
      "-<": 3518,
      "-=": 3519,
      "->": 3520,
      "-?": 3521,
      "-@": 3522,
      "-A": 3523,
      "-B": 3524,
      "-C": 3525,
      "-D": 3526,
      "-E": 3527,
      "-F": 3528,
      "-G": 3529,
      "-H": 3530,
      "-I": 3531,
      "-J": 3532,
      "-K": 3533,
      "-L": 3534,
      "-M": 3535,
      "-N": 3536,
      "-O": 3537,
      "-P": 3538,
      "-Q": 3539,
      "-R": 3540,
      "-S": 3541,
      "-T": 3542,
      "-U": 3543,
      "-V": 3544,
      "-W": 3545,
      "-X": 3546,
      "-Y": 3547,
      "-Z": 3548,
      "-[": 3549,
      "-\\": 3550,
      "-]": 3551,
      "-^": 3552,
      "-_": 3553,
      "-`": 3554,
      "-a": 3555,
      "-b": 3556,
      "-c": 3557,
      "-d": 3558,
      "-e": 3559,
      "-f": 3560,
      "-g": 3561,
      "-h": 3562,
      "-i": 3563,
      "-j": 3564,
      "-k": 3565,
      "-l": 3566,
      "-m": 3567,
      "-n": 3568,
      "-o": 3569,
      "-p": 3570,
      "-q": 3571,
      "-r": 3572,
      "-s": 3573,
      "-t": 3574,
      "-u": 3575,
      "-v": 3576,
      "-w": 3577,
      "-x": 3578,
      "-y": 3579,
      "-z": 3580,
      "-{": 3581,
      "-|": 3582,
      "-}": 3583,
      "-~": 3584,
      "-Â¡": 3585,
      "-Â¢": 3586,
      "-Â£": 3587,
      "-Â¤": 3588,
      "-Â¥": 3589,
      "-Â¦": 3590,
      "-Â§": 3591,
      "-Â¨": 3592,
      "-Â©": 3593,
      "-Âª": 3594,
      "-Â«": 3595,
      "-Â¬": 3596,
      "-Â®": 3597,
      "-Â¯": 3598,
      "-Â°": 3599,
      "-Â±": 3600,
      "-Â²": 3601,
      "-Â³": 3602,
      "-Â´": 3603,
      "-Âµ": 3604,
      "-Â¶": 3605,
      "-Â·": 3606,
      "-Â¸": 3607,
      "-Â¹": 3608,
      "-Âº": 3609,
      "-Â»": 3610,
      "-Â¼": 3611,
      "-Â½": 3612,
      "-Â¾": 3613,
      "-Â¿": 3614,
      "-Ã¡": 3615,
      "-Ã¢": 3616,
      "-Ã£": 3617,
      "-Ã¤": 3618,
      "-Ã¥": 3619,
      "-Ã¦": 3620,
      "-Ã§": 3621,
      "-Ã¨": 3622,
      "-Ã©": 3623,
      "-Ãª": 3624,
      "-Ã«": 3625,
      "-Ã¬": 3626,
      "-Ã®": 3627,
      "-Ã¯": 3628,
      "-Ã°": 3629,
      "-Ã±": 3630,
      "-Ã²": 3631,
      "-Ã³": 3632,
      "-Ã´": 3633,
      "-Ãµ": 3634,
      "-Ã¶": 3635,
      "-Ã·": 3636,
      "-Ã¸": 3637,
      "-Ã¹": 3638,
      "-Ãº": 3639,
      "-Ã»": 3640,
      "-Ã¼": 3641,
      "-Ã½": 3642,
      "-Ã¾": 3643,
      "-Ã¿": 3644,
      "-ÃĢ": 3645,
      "-Ãģ": 3646,
      "-ÃĤ": 3647,
      "-Ãĥ": 3648,
      "-ÃĦ": 3649,
      "-Ãħ": 3650,
      "-ÃĨ": 3651,
      "-Ãĩ": 3652,
      "-ÃĪ": 3653,
      "-Ãī": 3654,
      "-ÃĬ": 3655,
      "-Ãĭ": 3656,
      "-ÃĮ": 3657,
      "-Ãį": 3658,
      "-Ãİ": 3659,
      "-Ãı": 3660,
      "-ÃĲ": 3661,
      "-Ãĳ": 3662,
      "-ÃĴ": 3663,
      "-Ãĵ": 3664,
      "-ÃĶ": 3665,
      "-Ãķ": 3666,
      "-Ãĸ": 3667,
      "-ÃĹ": 3668,
      "-Ãĺ": 3669,
      "-ÃĻ": 3670,
      "-Ãļ": 3671,
      "-ÃĽ": 3672,
      "-Ãľ": 3673,
      "-ÃĿ": 3674,
      "-Ãŀ": 3675,
      "-ÃŁ": 3676,
      "-Ãł": 3677,
      "-ÃŃ": 3678,
      "-Ä¡": 3679,
      "-Ä¢": 3680,
      "-Ä£": 3681,
      "-Ä¤": 3682,
      "-Ä¥": 3683,
      "-Ä¦": 3684,
      "-Ä§": 3685,
      "-Ä¨": 3686,
      "-Ä©": 3687,
      "-Äª": 3688,
      "-Ä«": 3689,
      "-Ä¬": 3690,
      "-Ä®": 3691,
      "-Ä¯": 3692,
      "-Ä°": 3693,
      "-Ä±": 3694,
      "-Ä²": 3695,
      "-Ä³": 3696,
      "-Ä´": 3697,
      "-Äµ": 3698,
      "-Ä¶": 3699,
      "-Ä·": 3700,
      "-Ä¸": 3701,
      "-Ä¹": 3702,
      "-Äº": 3703,
      "-Ä»": 3704,
      "-Ä¼": 3705,
      "-Ä½": 3706,
      "-Ä¾": 3707,
      "-Ä¿": 3708,
      "-ÄĢ": 3709,
      "-Äģ": 3710,
      "-ÄĤ": 3711,
      "-Äĥ": 3712,
      "-ÄĦ": 3713,
      "-Äħ": 3714,
      "-ÄĨ": 3715,
      "-Äĩ": 3716,
      "-ÄĪ": 3717,
      "-Äī": 3718,
      "-ÄĬ": 3719,
      "-Äĭ": 3720,
      "-ÄĮ": 3721,
      "-Äį": 3722,
      "-Äİ": 3723,
      "-Äı": 3724,
      "-ÄĲ": 3725,
      "-Äĳ": 3726,
      "-ÄĴ": 3727,
      "-Äĵ": 3728,
      "-ÄĶ": 3729,
      "-Äķ": 3730,
      "-Äĸ": 3731,
      "-ÄĹ": 3732,
      "-Äĺ": 3733,
      "-ÄĻ": 3734,
      "-Äļ": 3735,
      "-ÄĽ": 3736,
      "-Äľ": 3737,
      "-ÄĿ": 3738,
      "-Äŀ": 3739,
      "-ÄŁ": 3740,
      "-Äł": 3741,
      "-ÄŃ": 3742,
      "-ÅĢ": 3743,
      "-Åģ": 3744,
      "-ÅĤ": 3745,
      "-Åĥ": 3746,
      ".!": 3747,
      ".\"": 3748,
      ".#": 3749,
      ".$": 3750,
      ".%": 3751,
      ".&": 3752,
      ".'": 3753,
      ".(": 3754,
      ".)": 3755,
      ".*": 3756,
      ".+": 3757,
      ".,": 3758,
      ".-": 3759,
      "..": 3760,
      "./": 3761,
      ".0": 3762,
      ".1": 3763,
      ".2": 3764,
      ".3": 3765,
      ".4": 3766,
      ".5": 3767,
      ".6": 3768,
      ".7": 3769,
      ".8": 3770,
      ".9": 3771,
      ".:": 3772,
      ".;": 3773,
      ".<": 3774,
      ".=": 3775,
      ".>": 3776,
      ".?": 3777,
      ".@": 3778,
      ".A": 3779,
      ".B": 3780,
      ".C": 3781,
      ".D": 3782,
      ".E": 3783,
      ".F": 3784,
      ".G": 3785,
      ".H": 3786,
      ".I": 3787,
      ".J": 3788,
      ".K": 3789,
      ".L": 3790,
      ".M": 3791,
      ".N": 3792,
      ".O": 3793,
      ".P": 3794,
      ".Q": 3795,
      ".R": 3796,
      ".S": 3797,
      ".T": 3798,
      ".U": 3799,
      ".V": 3800,
      ".W": 3801,
      ".X": 3802,
      ".Y": 3803,
      ".Z": 3804,
      ".[": 3805,
      ".\\": 3806,
      ".]": 3807,
      ".^": 3808,
      "._": 3809,
      ".`": 3810,
      ".a": 3811,
      ".b": 3812,
      ".c": 3813,
      ".d": 3814,
      ".e": 3815,
      ".f": 3816,
      ".g": 3817,
      ".h": 3818,
      ".i": 3819,
      ".j": 3820,
      ".k": 3821,
      ".l": 3822,
      ".m": 3823,
      ".n": 3824,
      ".o": 3825,
      ".p": 3826,
      ".q": 3827,
      ".r": 3828,
      ".s": 3829,
      ".t": 3830,
      ".u": 3831,
      ".v": 3832,
      ".w": 3833,
      ".x": 3834,
      ".y": 3835,
      ".z": 3836,
      ".{": 3837,
      ".|": 3838,
      ".}": 3839,
      ".~": 3840,
      ".Â¡": 3841,
      ".Â¢": 3842,
      ".Â£": 3843,
      ".Â¤": 3844,
      ".Â¥": 3845,
      ".Â¦": 3846,
      ".Â§": 3847,
      ".Â¨": 3848,
      ".Â©": 3849,
      ".Âª": 3850,
      ".Â«": 3851,
      ".Â¬": 3852,
      ".Â®": 3853,
      ".Â¯": 3854,
      ".Â°": 3855,
      ".Â±": 3856,
      ".Â²": 3857,
      ".Â³": 3858,
      ".Â´": 3859,
      ".Âµ": 3860,
      ".Â¶": 3861,
      ".Â·": 3862,
      ".Â¸": 3863,
      ".Â¹": 3864,
      ".Âº": 3865,
      ".Â»": 3866,
      ".Â¼": 3867,
      ".Â½": 3868,
      ".Â¾": 3869,
      ".Â¿": 3870,
      ".Ã¡": 3871,
      ".Ã¢": 3872,
      ".Ã£": 3873,
      ".Ã¤": 3874,
      ".Ã¥": 3875,
      ".Ã¦": 3876,
      ".Ã§": 3877,
      ".Ã¨": 3878,
      ".Ã©": 3879,
      ".Ãª": 3880,
      ".Ã«": 3881,
      ".Ã¬": 3882,
      ".Ã®": 3883,
      ".Ã¯": 3884,
      ".Ã°": 3885,
      ".Ã±": 3886,
      ".Ã²": 3887,
      ".Ã³": 3888,
      ".Ã´": 3889,
      ".Ãµ": 3890,
      ".Ã¶": 3891,
      ".Ã·": 3892,
      ".Ã¸": 3893,
      ".Ã¹": 3894,
      ".Ãº": 3895,
      ".Ã»": 3896,
      ".Ã¼": 3897,
      ".Ã½": 3898,
      ".Ã¾": 3899,
      ".Ã¿": 3900,
      ".ÃĢ": 3901,
      ".Ãģ": 3902,
      ".ÃĤ": 3903,
      ".Ãĥ": 3904,
      ".ÃĦ": 3905,
      ".Ãħ": 3906,
      ".ÃĨ": 3907,
      ".Ãĩ": 3908,
      ".ÃĪ": 3909,
      ".Ãī": 3910,
      ".ÃĬ": 3911,
      ".Ãĭ": 3912,
      ".ÃĮ": 3913,
      ".Ãį": 3914,
      ".Ãİ": 3915,
      ".Ãı": 3916,
      ".ÃĲ": 3917,
      ".Ãĳ": 3918,
      ".ÃĴ": 3919,
      ".Ãĵ": 3920,
      ".ÃĶ": 3921,
      ".Ãķ": 3922,
      ".Ãĸ": 3923,
      ".ÃĹ": 3924,
      ".Ãĺ": 3925,
      ".ÃĻ": 3926,
      ".Ãļ": 3927,
      ".ÃĽ": 3928,
      ".Ãľ": 3929,
      ".ÃĿ": 3930,
      ".Ãŀ": 3931,
      ".ÃŁ": 3932,
      ".Ãł": 3933,
      ".ÃŃ": 3934,
      ".Ä¡": 3935,
      ".Ä¢": 3936,
      ".Ä£": 3937,
      ".Ä¤": 3938,
      ".Ä¥": 3939,
      ".Ä¦": 3940,
      ".Ä§": 3941,
      ".Ä¨": 3942,
      ".Ä©": 3943,
      ".Äª": 3944,
      ".Ä«": 3945,
      ".Ä¬": 3946,
      ".Ä®": 3947,
      ".Ä¯": 3948,
      ".Ä°": 3949,
      ".Ä±": 3950,
      ".Ä²": 3951,
      ".Ä³": 3952,
      ".Ä´": 3953,
      ".Äµ": 3954,
      ".Ä¶": 3955,
      ".Ä·": 3956,
      ".Ä¸": 3957,
      ".Ä¹": 3958,
      ".Äº": 3959,
      ".Ä»": 3960,
      ".Ä¼": 3961,
      ".Ä½": 3962,
      ".Ä¾": 3963,
      ".Ä¿": 3964,
      ".ÄĢ": 3965,
      ".Äģ": 3966,
      ".ÄĤ": 3967,
      ".Äĥ": 3968,
      ".ÄĦ": 3969,
      ".Äħ": 3970,
      ".ÄĨ": 3971,
      ".Äĩ": 3972,
      ".ÄĪ": 3973,
      ".Äī": 3974,
      ".ÄĬ": 3975,
      ".Äĭ": 3976,
      ".ÄĮ": 3977,
      ".Äį": 3978,
      ".Äİ": 3979,
      ".Äı": 3980,
      ".ÄĲ": 3981,
      ".Äĳ": 3982,
      ".ÄĴ": 3983,
      ".Äĵ": 3984,
      ".ÄĶ": 3985,
      ".Äķ": 3986,
      ".Äĸ": 3987,
      ".ÄĹ": 3988,
      ".Äĺ": 3989,
      ".ÄĻ": 3990,
      ".Äļ": 3991,
      ".ÄĽ": 3992,
      ".Äľ": 3993,
      ".ÄĿ": 3994,
      ".Äŀ": 3995,
      ".ÄŁ": 3996,
      ".Äł": 3997,
      ".ÄŃ": 3998,
      ".ÅĢ": 3999,
      ".Åģ": 4000,
      ".ÅĤ": 4001,
      ".Åĥ": 4002,
      "/!": 4003,
      "/\"": 4004,
      "/#": 4005,
      "/$": 4006,
      "/%": 4007,
      "/&": 4008,
      "/'": 4009,
      "/(": 4010,
      "/)": 4011,
      "/*": 4012,
      "/+": 4013,
      "/,": 4014,
      "/-": 4015,
      "/.": 4016,
      "//": 4017,
      "/0": 4018,
      "/1": 4019,
      "/2": 4020,
      "/3": 4021,
      "/4": 4022,
      "/5": 4023,
      "/6": 4024,
      "/7": 4025,
      "/8": 4026,
      "/9": 4027,
      "/:": 4028,
      "/;": 4029,
      "/<": 4030,
      "/=": 4031,
      "/>": 4032,
      "/?": 4033,
      "/@": 4034,
      "/A": 4035,
      "/B": 4036,
      "/C": 4037,
      "/D": 4038,
      "/E": 4039,
      "/F": 4040,
      "/G": 4041,
      "/H": 4042,
      "/I": 4043,
      "/J": 4044,
      "/K": 4045,
      "/L": 4046,
      "/M": 4047,
      "/N": 4048,
      "/O": 4049,
      "/P": 4050,
      "/Q": 4051,
      "/R": 4052,
      "/S": 4053,
      "/T": 4054,
      "/U": 4055,
      "/V": 4056,
      "/W": 4057,
      "/X": 4058,
      "/Y": 4059,
      "/Z": 4060,
      "/[": 4061,
      "/\\": 4062,
      "/]": 4063,
      "/^": 4064,
      "/_": 4065,
      "/`": 4066,
      "/a": 4067,
      "/b": 4068,
      "/c": 4069,
      "/d": 4070,
      "/e": 4071,
      "/f": 4072,
      "/g": 4073,
      "/h": 4074,
      "/i": 4075,
      "/j": 4076,
      "/k": 4077,
      "/l": 4078,
      "/m": 4079,
      "/n": 4080,
      "/o": 4081,
      "/p": 4082,
      "/q": 4083,
      "/r": 4084,
      "/s": 4085,
      "/t": 4086,
      "/u": 4087,
      "/v": 4088,
      "/w": 4089,
      "/x": 4090,
      "/y": 4091,
      "/z": 4092,
      "/{": 4093,
      "/|": 4094,
      "/}": 4095,
      "/~": 4096,
      "/Â¡": 4097,
      "/Â¢": 4098,
      "/Â£": 4099,
      "/Â¤": 4100,
      "/Â¥": 4101,
      "/Â¦": 4102,
      "/Â§": 4103,
      "/Â¨": 4104,
      "/Â©": 4105,
      "/Âª": 4106,
      "/Â«": 4107,
      "/Â¬": 4108,
      "/Â®": 4109,
      "/Â¯": 4110,
      "/Â°": 4111,
      "/Â±": 4112,
      "/Â²": 4113,
      "/Â³": 4114,
      "/Â´": 4115,
      "/Âµ": 4116,
      "/Â¶": 4117,
      "/Â·": 4118,
      "/Â¸": 4119,
      "/Â¹": 4120,
      "/Âº": 4121,
      "/Â»": 4122,
      "/Â¼": 4123,
      "/Â½": 4124,
      "/Â¾": 4125,
      "/Â¿": 4126,
      "/Ã¡": 4127,
      "/Ã¢": 4128,
      "/Ã£": 4129,
      "/Ã¤": 4130,
      "/Ã¥": 4131,
      "/Ã¦": 4132,
      "/Ã§": 4133,
      "/Ã¨": 4134,
      "/Ã©": 4135,
      "/Ãª": 4136,
      "/Ã«": 4137,
      "/Ã¬": 4138,
      "/Ã®": 4139,
      "/Ã¯": 4140,
      "/Ã°": 4141,
      "/Ã±": 4142,
      "/Ã²": 4143,
      "/Ã³": 4144,
      "/Ã´": 4145,
      "/Ãµ": 4146,
      "/Ã¶": 4147,
      "/Ã·": 4148,
      "/Ã¸": 4149,
      "/Ã¹": 4150,
      "/Ãº": 4151,
      "/Ã»": 4152,
      "/Ã¼": 4153,
      "/Ã½": 4154,
      "/Ã¾": 4155,
      "/Ã¿": 4156,
      "/ÃĢ": 4157,
      "/Ãģ": 4158,
      "/ÃĤ": 4159,
      "/Ãĥ": 4160,
      "/ÃĦ": 4161,
      "/Ãħ": 4162,
      "/ÃĨ": 4163,
      "/Ãĩ": 4164,
      "/ÃĪ": 4165,
      "/Ãī": 4166,
      "/ÃĬ": 4167,
      "/Ãĭ": 4168,
      "/ÃĮ": 4169,
      "/Ãį": 4170,
      "/Ãİ": 4171,
      "/Ãı": 4172,
      "/ÃĲ": 4173,
      "/Ãĳ": 4174,
      "/ÃĴ": 4175,
      "/Ãĵ": 4176,
      "/ÃĶ": 4177,
      "/Ãķ": 4178,
      "/Ãĸ": 4179,
      "/ÃĹ": 4180,
      "/Ãĺ": 4181,
      "/ÃĻ": 4182,
      "/Ãļ": 4183,
      "/ÃĽ": 4184,
      "/Ãľ": 4185,
      "/ÃĿ": 4186,
      "/Ãŀ": 4187,
      "/ÃŁ": 4188,
      "/Ãł": 4189,
      "/ÃŃ": 4190,
      "/Ä¡": 4191,
      "/Ä¢": 4192,
      "/Ä£": 4193,
      "/Ä¤": 4194,
      "/Ä¥": 4195,
      "/Ä¦": 4196,
      "/Ä§": 4197,
      "/Ä¨": 4198,
      "/Ä©": 4199,
      "/Äª": 4200,
      "/Ä«": 4201,
      "/Ä¬": 4202,
      "/Ä®": 4203,
      "/Ä¯": 4204,
      "/Ä°": 4205,
      "/Ä±": 4206,
      "/Ä²": 4207,
      "/Ä³": 4208,
      "/Ä´": 4209,
      "/Äµ": 4210,
      "/Ä¶": 4211,
      "/Ä·": 4212,
      "/Ä¸": 4213,
      "/Ä¹": 4214,
      "/Äº": 4215,
      "/Ä»": 4216,
      "/Ä¼": 4217,
      "/Ä½": 4218,
      "/Ä¾": 4219,
      "/Ä¿": 4220,
      "/ÄĢ": 4221,
      "/Äģ": 4222,
      "/ÄĤ": 4223,
      "/Äĥ": 4224,
      "/ÄĦ": 4225,
      "/Äħ": 4226,
      "/ÄĨ": 4227,
      "/Äĩ": 4228,
      "/ÄĪ": 4229,
      "/Äī": 4230,
      "/ÄĬ": 4231,
      "/Äĭ": 4232,
      "/ÄĮ": 4233,
      "/Äį": 4234,
      "/Äİ": 4235,
      "/Äı": 4236,
      "/ÄĲ": 4237,
      "/Äĳ": 4238,
      "/ÄĴ": 4239,
      "/Äĵ": 4240,
      "/ÄĶ": 4241,
      "/Äķ": 4242,
      "/Äĸ": 4243,
      "/ÄĹ": 4244,
      "/Äĺ": 4245,
      "/ÄĻ": 4246,
      "/Äļ": 4247,
      "/ÄĽ": 4248,
      "/Äľ": 4249,
      "/ÄĿ": 4250,
      "/Äŀ": 4251,
      "/ÄŁ": 4252,
      "/Äł": 4253,
      "/ÄŃ": 4254,
      "/ÅĢ": 4255,
      "/Åģ": 4256,
      "/ÅĤ": 4257,
      "/Åĥ": 4258,
      "0!": 4259,
      "0\"": 4260,
      "0#": 4261,
      "0$": 4262,
      "0%": 4263,
      "0&": 4264,
      "0'": 4265,
      "0(": 4266,
      "0)": 4267,
      "0*": 4268,
      "0+": 4269,
      "0,": 4270,
      "0-": 4271,
      "0.": 4272,
      "0/": 4273,
      "00": 4274,
      "01": 4275,
      "02": 4276,
      "03": 4277,
      "04": 4278,
      "05": 4279,
      "06": 4280,
      "07": 4281,
      "08": 4282,
      "09": 4283,
      "0:": 4284,
      "0;": 4285,
      "0<": 4286,
      "0=": 4287,
      "0>": 4288,
      "0?": 4289,
      "0@": 4290,
      "0A": 4291,
      "0B": 4292,
      "0C": 4293,
      "0D": 4294,
      "0E": 4295,
      "0F": 4296,
      "0G": 4297,
      "0H": 4298,
      "0I": 4299,
      "0J": 4300,
      "0K": 4301,
      "0L": 4302,
      "0M": 4303,
      "0N": 4304,
      "0O": 4305,
      "0P": 4306,
      "0Q": 4307,
      "0R": 4308,
      "0S": 4309,
      "0T": 4310,
      "0U": 4311,
      "0V": 4312,
      "0W": 4313,
      "0X": 4314,
      "0Y": 4315,
      "0Z": 4316,
      "0[": 4317,
      "0\\": 4318,
      "0]": 4319,
      "0^": 4320,
      "0_": 4321,
      "0`": 4322,
      "0a": 4323,
      "0b": 4324,
      "0c": 4325,
      "0d": 4326,
      "0e": 4327,
      "0f": 4328,
      "0g": 4329,
      "0h": 4330,
      "0i": 4331,
      "0j": 4332,
      "0k": 4333,
      "0l": 4334,
      "0m": 4335,
      "0n": 4336,
      "0o": 4337,
      "0p": 4338,
      "0q": 4339,
      "0r": 4340,
      "0s": 4341,
      "0t": 4342,
      "0u": 4343,
      "0v": 4344,
      "0w": 4345,
      "0x": 4346,
      "0y": 4347,
      "0z": 4348,
      "0{": 4349,
      "0|": 4350,
      "0}": 4351,
      "0~": 4352,
      "0Â¡": 4353,
      "0Â¢": 4354,
      "0Â£": 4355,
      "0Â¤": 4356,
      "0Â¥": 4357,
      "0Â¦": 4358,
      "0Â§": 4359,
      "0Â¨": 4360,
      "0Â©": 4361,
      "0Âª": 4362,
      "0Â«": 4363,
      "0Â¬": 4364,
      "0Â®": 4365,
      "0Â¯": 4366,
      "0Â°": 4367,
      "0Â±": 4368,
      "0Â²": 4369,
      "0Â³": 4370,
      "0Â´": 4371,
      "0Âµ": 4372,
      "0Â¶": 4373,
      "0Â·": 4374,
      "0Â¸": 4375,
      "0Â¹": 4376,
      "0Âº": 4377,
      "0Â»": 4378,
      "0Â¼": 4379,
      "0Â½": 4380,
      "0Â¾": 4381,
      "0Â¿": 4382,
      "0Ã¡": 4383,
      "0Ã¢": 4384,
      "0Ã£": 4385,
      "0Ã¤": 4386,
      "0Ã¥": 4387,
      "0Ã¦": 4388,
      "0Ã§": 4389,
      "0Ã¨": 4390,
      "0Ã©": 4391,
      "0Ãª": 4392,
      "0Ã«": 4393,
      "0Ã¬": 4394,
      "0Ã®": 4395,
      "0Ã¯": 4396,
      "0Ã°": 4397,
      "0Ã±": 4398,
      "0Ã²": 4399,
      "0Ã³": 4400,
      "0Ã´": 4401,
      "0Ãµ": 4402,
      "0Ã¶": 4403,
      "0Ã·": 4404,
      "0Ã¸": 4405,
      "0Ã¹": 4406,
      "0Ãº": 4407,
      "0Ã»": 4408,
      "0Ã¼": 4409,
      "0Ã½": 4410,
      "0Ã¾": 4411,
      "0Ã¿": 4412,
      "0ÃĢ": 4413,
      "0Ãģ": 4414,
      "0ÃĤ": 4415,
      "0Ãĥ": 4416,
      "0ÃĦ": 4417,
      "0Ãħ": 4418,
      "0ÃĨ": 4419,
      "0Ãĩ": 4420,
      "0ÃĪ": 4421,
      "0Ãī": 4422,
      "0ÃĬ": 4423,
      "0Ãĭ": 4424,
      "0ÃĮ": 4425,
      "0Ãį": 4426,
      "0Ãİ": 4427,
      "0Ãı": 4428,
      "0ÃĲ": 4429,
      "0Ãĳ": 4430,
      "0ÃĴ": 4431,
      "0Ãĵ": 4432,
      "0ÃĶ": 4433,
      "0Ãķ": 4434,
      "0Ãĸ": 4435,
      "0ÃĹ": 4436,
      "0Ãĺ": 4437,
      "0ÃĻ": 4438,
      "0Ãļ": 4439,
      "0ÃĽ": 4440,
      "0Ãľ": 4441,
      "0ÃĿ": 4442,
      "0Ãŀ": 4443,
      "0ÃŁ": 4444,
      "0Ãł": 4445,
      "0ÃŃ": 4446,
      "0Ä¡": 4447,
      "0Ä¢": 4448,
      "0Ä£": 4449,
      "0Ä¤": 4450,
      "0Ä¥": 4451,
      "0Ä¦": 4452,
      "0Ä§": 4453,
      "0Ä¨": 4454,
      "0Ä©": 4455,
      "0Äª": 4456,
      "0Ä«": 4457,
      "0Ä¬": 4458,
      "0Ä®": 4459,
      "0Ä¯": 4460,
      "0Ä°": 4461,
      "0Ä±": 4462,
      "0Ä²": 4463,
      "0Ä³": 4464,
      "0Ä´": 4465,
      "0Äµ": 4466,
      "0Ä¶": 4467,
      "0Ä·": 4468,
      "0Ä¸": 4469,
      "0Ä¹": 4470,
      "0Äº": 4471,
      "0Ä»": 4472,
      "0Ä¼": 4473,
      "0Ä½": 4474,
      "0Ä¾": 4475,
      "0Ä¿": 4476,
      "0ÄĢ": 4477,
      "0Äģ": 4478,
      "0ÄĤ": 4479,
      "0Äĥ": 4480,
      "0ÄĦ": 4481,
      "0Äħ": 4482,
      "0ÄĨ": 4483,
      "0Äĩ": 4484,
      "0ÄĪ": 4485,
      "0Äī": 4486,
      "0ÄĬ": 4487,
      "0Äĭ": 4488,
      "0ÄĮ": 4489,
      "0Äį": 4490,
      "0Äİ": 4491,
      "0Äı": 4492,
      "0ÄĲ": 4493,
      "0Äĳ": 4494,
      "0ÄĴ": 4495,
      "0Äĵ": 4496,
      "0ÄĶ": 4497,
      "0Äķ": 4498,
      "0Äĸ": 4499,
      "0ÄĹ": 4500,
      "0Äĺ": 4501,
      "0ÄĻ": 4502,
      "0Äļ": 4503,
      "0ÄĽ": 4504,
      "0Äľ": 4505,
      "0ÄĿ": 4506,
      "0Äŀ": 4507,
      "0ÄŁ": 4508,
      "0Äł": 4509,
      "0ÄŃ": 4510,
      "0ÅĢ": 4511,
      "0Åģ": 4512,
      "0ÅĤ": 4513,
      "0Åĥ": 4514,
      "1!": 4515,
      "1\"": 4516,
      "1#": 4517,
      "1$": 4518,
      "1%": 4519,
      "1&": 4520,
      "1'": 4521,
      "1(": 4522,
      "1)": 4523,
      "1*": 4524,
      "1+": 4525,
      "1,": 4526,
      "1-": 4527,
      "1.": 4528,
      "1/": 4529,
      "10": 4530,
      "11": 4531,
      "12": 4532,
      "13": 4533,
      "14": 4534,
      "15": 4535,
      "16": 4536,
      "17": 4537,
      "18": 4538,
      "19": 4539,
      "1:": 4540,
      "1;": 4541,
      "1<": 4542,
      "1=": 4543,
      "1>": 4544,
      "1?": 4545,
      "1@": 4546,
      "1A": 4547,
      "1B": 4548,
      "1C": 4549,
      "1D": 4550,
      "1E": 4551,
      "1F": 4552,
      "1G": 4553,
      "1H": 4554,
      "1I": 4555,
      "1J": 4556,
      "1K": 4557,
      "1L": 4558,
      "1M": 4559,
      "1N": 4560,
      "1O": 4561,
      "1P": 4562,
      "1Q": 4563,
      "1R": 4564,
      "1S": 4565,
      "1T": 4566,
      "1U": 4567,
      "1V": 4568,
      "1W": 4569,
      "1X": 4570,
      "1Y": 4571,
      "1Z": 4572,
      "1[": 4573,
      "1\\": 4574,
      "1]": 4575,
      "1^": 4576,
      "1_": 4577,
      "1`": 4578,
      "1a": 4579,
      "1b": 4580,
      "1c": 4581,
      "1d": 4582,
      "1e": 4583,
      "1f": 4584,
      "1g": 4585,
      "1h": 4586,
      "1i": 4587,
      "1j": 4588,
      "1k": 4589,
      "1l": 4590,
      "1m": 4591,
      "1n": 4592,
      "1o": 4593,
      "1p": 4594,
      "1q": 4595,
      "1r": 4596,
      "1s": 4597,
      "1t": 4598,
      "1u": 4599,
      "1v": 4600,
      "1w": 4601,
      "1x": 4602,
      "1y": 4603,
      "1z": 4604,
      "1{": 4605,
      "1|": 4606,
      "1}": 4607,
      "1~": 4608,
      "1Â¡": 4609,
      "1Â¢": 4610,
      "1Â£": 4611,
      "1Â¤": 4612,
      "1Â¥": 4613,
      "1Â¦": 4614,
      "1Â§": 4615,
      "1Â¨": 4616,
      "1Â©": 4617,
      "1Âª": 4618,
      "1Â«": 4619,
      "1Â¬": 4620,
      "1Â®": 4621,
      "1Â¯": 4622,
      "1Â°": 4623,
      "1Â±": 4624,
      "1Â²": 4625,
      "1Â³": 4626,
      "1Â´": 4627,
      "1Âµ": 4628,
      "1Â¶": 4629,
      "1Â·": 4630,
      "1Â¸": 4631,
      "1Â¹": 4632,
      "1Âº": 4633,
      "1Â»": 4634,
      "1Â¼": 4635,
      "1Â½": 4636,
      "1Â¾": 4637,
      "1Â¿": 4638,
      "1Ã¡": 4639,
      "1Ã¢": 4640,
      "1Ã£": 4641,
      "1Ã¤": 4642,
      "1Ã¥": 4643,
      "1Ã¦": 4644,
      "1Ã§": 4645,
      "1Ã¨": 4646,
      "1Ã©": 4647,
      "1Ãª": 4648,
      "1Ã«": 4649,
      "1Ã¬": 4650,
      "1Ã®": 4651,
      "1Ã¯": 4652,
      "1Ã°": 4653,
      "1Ã±": 4654,
      "1Ã²": 4655,
      "1Ã³": 4656,
      "1Ã´": 4657,
      "1Ãµ": 4658,
      "1Ã¶": 4659,
      "1Ã·": 4660,
      "1Ã¸": 4661,
      "1Ã¹": 4662,
      "1Ãº": 4663,
      "1Ã»": 4664,
      "1Ã¼": 4665,
      "1Ã½": 4666,
      "1Ã¾": 4667,
      "1Ã¿": 4668,
      "1ÃĢ": 4669,
      "1Ãģ": 4670,
      "1ÃĤ": 4671,
      "1Ãĥ": 4672,
      "1ÃĦ": 4673,
      "1Ãħ": 4674,
      "1ÃĨ": 4675,
      "1Ãĩ": 4676,
      "1ÃĪ": 4677,
      "1Ãī": 4678,
      "1ÃĬ": 4679,
      "1Ãĭ": 4680,
      "1ÃĮ": 4681,
      "1Ãį": 4682,
      "1Ãİ": 4683,
      "1Ãı": 4684,
      "1ÃĲ": 4685,
      "1Ãĳ": 4686,
      "1ÃĴ": 4687,
      "1Ãĵ": 4688,
      "1ÃĶ": 4689,
      "1Ãķ": 4690,
      "1Ãĸ": 4691,
      "1ÃĹ": 4692,
      "1Ãĺ": 4693,
      "1ÃĻ": 4694,
      "1Ãļ": 4695,
      "1ÃĽ": 4696,
      "1Ãľ": 4697,
      "1ÃĿ": 4698,
      "1Ãŀ": 4699,
      "1ÃŁ": 4700,
      "1Ãł": 4701,
      "1ÃŃ": 4702,
      "1Ä¡": 4703,
      "1Ä¢": 4704,
      "1Ä£": 4705,
      "1Ä¤": 4706,
      "1Ä¥": 4707,
      "1Ä¦": 4708,
      "1Ä§": 4709,
      "1Ä¨": 4710,
      "1Ä©": 4711,
      "1Äª": 4712,
      "1Ä«": 4713,
      "1Ä¬": 4714,
      "1Ä®": 4715,
      "1Ä¯": 4716,
      "1Ä°": 4717,
      "1Ä±": 4718,
      "1Ä²": 4719,
      "1Ä³": 4720,
      "1Ä´": 4721,
      "1Äµ": 4722,
      "1Ä¶": 4723,
      "1Ä·": 4724,
      "1Ä¸": 4725,
      "1Ä¹": 4726,
      "1Äº": 4727,
      "1Ä»": 4728,
      "1Ä¼": 4729,
      "1Ä½": 4730,
      "1Ä¾": 4731,
      "1Ä¿": 4732,
      "1ÄĢ": 4733,
      "1Äģ": 4734,
      "1ÄĤ": 4735,
      "1Äĥ": 4736,
      "1ÄĦ": 4737,
      "1Äħ": 4738,
      "1ÄĨ": 4739,
      "1Äĩ": 4740,
      "1ÄĪ": 4741,
      "1Äī": 4742,
      "1ÄĬ": 4743,
      "1Äĭ": 4744,
      "1ÄĮ": 4745,
      "1Äį": 4746,
      "1Äİ": 4747,
      "1Äı": 4748,
      "1ÄĲ": 4749,
      "1Äĳ": 4750,
      "1ÄĴ": 4751,
      "1Äĵ": 4752,
      "1ÄĶ": 4753,
      "1Äķ": 4754,
      "1Äĸ": 4755,
      "1ÄĹ": 4756,
      "1Äĺ": 4757,
      "1ÄĻ": 4758,
      "1Äļ": 4759,
      "1ÄĽ": 4760,
      "1Äľ": 4761,
      "1ÄĿ": 4762,
      "1Äŀ": 4763,
      "1ÄŁ": 4764,
      "1Äł": 4765,
      "1ÄŃ": 4766,
      "1ÅĢ": 4767,
      "1Åģ": 4768,
      "1ÅĤ": 4769,
      "1Åĥ": 4770,
      "2!": 4771,
      "2\"": 4772,
      "2#": 4773,
      "2$": 4774,
      "2%": 4775,
      "2&": 4776,
      "2'": 4777,
      "2(": 4778,
      "2)": 4779,
      "2*": 4780,
      "2+": 4781,
      "2,": 4782,
      "2-": 4783,
      "2.": 4784,
      "2/": 4785,
      "20": 4786,
      "21": 4787,
      "22": 4788,
      "23": 4789,
      "24": 4790,
      "25": 4791,
      "26": 4792,
      "27": 4793,
      "28": 4794,
      "29": 4795,
      "2:": 4796,
      "2;": 4797,
      "2<": 4798,
      "2=": 4799,
      "2>": 4800,
      "2?": 4801,
      "2@": 4802,
      "2A": 4803,
      "2B": 4804,
      "2C": 4805,
      "2D": 4806,
      "2E": 4807,
      "2F": 4808,
      "2G": 4809,
      "2H": 4810,
      "2I": 4811,
      "2J": 4812,
      "2K": 4813,
      "2L": 4814,
      "2M": 4815,
      "2N": 4816,
      "2O": 4817,
      "2P": 4818,
      "2Q": 4819,
      "2R": 4820,
      "2S": 4821,
      "2T": 4822,
      "2U": 4823,
      "2V": 4824,
      "2W": 4825,
      "2X": 4826,
      "2Y": 4827,
      "2Z": 4828,
      "2[": 4829,
      "2\\": 4830,
      "2]": 4831,
      "2^": 4832,
      "2_": 4833,
      "2`": 4834,
      "2a": 4835,
      "2b": 4836,
      "2c": 4837,
      "2d": 4838,
      "2e": 4839,
      "2f": 4840,
      "2g": 4841,
      "2h": 4842,
      "2i": 4843,
      "2j": 4844,
      "2k": 4845,
      "2l": 4846,
      "2m": 4847,
      "2n": 4848,
      "2o": 4849,
      "2p": 4850,
      "2q": 4851,
      "2r": 4852,
      "2s": 4853,
      "2t": 4854,
      "2u": 4855,
      "2v": 4856,
      "2w": 4857,
      "2x": 4858,
      "2y": 4859,
      "2z": 4860,
      "2{": 4861,
      "2|": 4862,
      "2}": 4863,
      "2~": 4864,
      "2Â¡": 4865,
      "2Â¢": 4866,
      "2Â£": 4867,
      "2Â¤": 4868,
      "2Â¥": 4869,
      "2Â¦": 4870,
      "2Â§": 4871,
      "2Â¨": 4872,
      "2Â©": 4873,
      "2Âª": 4874,
      "2Â«": 4875,
      "2Â¬": 4876,
      "2Â®": 4877,
      "2Â¯": 4878,
      "2Â°": 4879,
      "2Â±": 4880,
      "2Â²": 4881,
      "2Â³": 4882,
      "2Â´": 4883,
      "2Âµ": 4884,
      "2Â¶": 4885,
      "2Â·": 4886,
      "2Â¸": 4887,
      "2Â¹": 4888,
      "2Âº": 4889,
      "2Â»": 4890,
      "2Â¼": 4891,
      "2Â½": 4892,
      "2Â¾": 4893,
      "2Â¿": 4894,
      "2Ã¡": 4895,
      "2Ã¢": 4896,
      "2Ã£": 4897,
      "2Ã¤": 4898,
      "2Ã¥": 4899,
      "2Ã¦": 4900,
      "2Ã§": 4901,
      "2Ã¨": 4902,
      "2Ã©": 4903,
      "2Ãª": 4904,
      "2Ã«": 4905,
      "2Ã¬": 4906,
      "2Ã®": 4907,
      "2Ã¯": 4908,
      "2Ã°": 4909,
      "2Ã±": 4910,
      "2Ã²": 4911,
      "2Ã³": 4912,
      "2Ã´": 4913,
      "2Ãµ": 4914,
      "2Ã¶": 4915,
      "2Ã·": 4916,
      "2Ã¸": 4917,
      "2Ã¹": 4918,
      "2Ãº": 4919,
      "2Ã»": 4920,
      "2Ã¼": 4921,
      "2Ã½": 4922,
      "2Ã¾": 4923,
      "2Ã¿": 4924,
      "2ÃĢ": 4925,
      "2Ãģ": 4926,
      "2ÃĤ": 4927,
      "2Ãĥ": 4928,
      "2ÃĦ": 4929,
      "2Ãħ": 4930,
      "2ÃĨ": 4931,
      "2Ãĩ": 4932,
      "2ÃĪ": 4933,
      "2Ãī": 4934,
      "2ÃĬ": 4935,
      "2Ãĭ": 4936,
      "2ÃĮ": 4937,
      "2Ãį": 4938,
      "2Ãİ": 4939,
      "2Ãı": 4940,
      "2ÃĲ": 4941,
      "2Ãĳ": 4942,
      "2ÃĴ": 4943,
      "2Ãĵ": 4944,
      "2ÃĶ": 4945,
      "2Ãķ": 4946,
      "2Ãĸ": 4947,
      "2ÃĹ": 4948,
      "2Ãĺ": 4949,
      "2ÃĻ": 4950,
      "2Ãļ": 4951,
      "2ÃĽ": 4952,
      "2Ãľ": 4953,
      "2ÃĿ": 4954,
      "2Ãŀ": 4955,
      "2ÃŁ": 4956,
      "2Ãł": 4957,
      "2ÃŃ": 4958,
      "2Ä¡": 4959,
      "2Ä¢": 4960,
      "2Ä£": 4961,
      "2Ä¤": 4962,
      "2Ä¥": 4963,
      "2Ä¦": 4964,
      "2Ä§": 4965,
      "2Ä¨": 4966,
      "2Ä©": 4967,
      "2Äª": 4968,
      "2Ä«": 4969,
      "2Ä¬": 4970,
      "2Ä®": 4971,
      "2Ä¯": 4972,
      "2Ä°": 4973,
      "2Ä±": 4974,
      "2Ä²": 4975,
      "2Ä³": 4976,
      "2Ä´": 4977,
      "2Äµ": 4978,
      "2Ä¶": 4979,
      "2Ä·": 4980,
      "2Ä¸": 4981,
      "2Ä¹": 4982,
      "2Äº": 4983,
      "2Ä»": 4984,
      "2Ä¼": 4985,
      "2Ä½": 4986,
      "2Ä¾": 4987,
      "2Ä¿": 4988,
      "2ÄĢ": 4989,
      "2Äģ": 4990,
      "2ÄĤ": 4991,
      "2Äĥ": 4992,
      "2ÄĦ": 4993,
      "2Äħ": 4994,
      "2ÄĨ": 4995,
      "2Äĩ": 4996,
      "2ÄĪ": 4997,
      "2Äī": 4998,
      "2ÄĬ": 4999,
      "2Äĭ": 5000,
      "2ÄĮ": 5001,
      "2Äį": 5002,
      "2Äİ": 5003,
      "2Äı": 5004,
      "2ÄĲ": 5005,
      "2Äĳ": 5006,
      "2ÄĴ": 5007,
      "2Äĵ": 5008,
      "2ÄĶ": 5009,
      "2Äķ": 5010,
      "2Äĸ": 5011,
      "2ÄĹ": 5012,
      "2Äĺ": 5013,
      "2ÄĻ": 5014,
      "2Äļ": 5015,
      "2ÄĽ": 5016,
      "2Äľ": 5017,
      "2ÄĿ": 5018,
      "2Äŀ": 5019,
      "2ÄŁ": 5020,
      "2Äł": 5021,
      "2ÄŃ": 5022,
      "2ÅĢ": 5023,
      "2Åģ": 5024,
      "2ÅĤ": 5025,
      "2Åĥ": 5026,
      "3!": 5027,
      "3\"": 5028,
      "3#": 5029,
      "3$": 5030,
      "3%": 5031,
      "3&": 5032,
      "3'": 5033,
      "3(": 5034,
      "3)": 5035,
      "3*": 5036,
      "3+": 5037,
      "3,": 5038,
      "3-": 5039,
      "3.": 5040,
      "3/": 5041,
      "30": 5042,
      "31": 5043,
      "32": 5044,
      "33": 5045,
      "34": 5046,
      "35": 5047,
      "36": 5048,
      "37": 5049,
      "38": 5050,
      "39": 5051,
      "3:": 5052,
      "3;": 5053,
      "3<": 5054,
      "3=": 5055,
      "3>": 5056,
      "3?": 5057,
      "3@": 5058,
      "3A": 5059,
      "3B": 5060,
      "3C": 5061,
      "3D": 5062,
      "3E": 5063,
      "3F": 5064,
      "3G": 5065,
      "3H": 5066,
      "3I": 5067,
      "3J": 5068,
      "3K": 5069,
      "3L": 5070,
      "3M": 5071,
      "3N": 5072,
      "3O": 5073,
      "3P": 5074,
      "3Q": 5075,
      "3R": 5076,
      "3S": 5077,
      "3T": 5078,
      "3U": 5079,
      "3V": 5080,
      "3W": 5081,
      "3X": 5082,
      "3Y": 5083,
      "3Z": 5084,
      "3[": 5085,
      "3\\": 5086,
      "3]": 5087,
      "3^": 5088,
      "3_": 5089,
      "3`": 5090,
      "3a": 5091,
      "3b": 5092,
      "3c": 5093,
      "3d": 5094,
      "3e": 5095,
      "3f": 5096,
      "3g": 5097,
      "3h": 5098,
      "3i": 5099,
      "3j": 5100,
      "3k": 5101,
      "3l": 5102,
      "3m": 5103,
      "3n": 5104,
      "3o": 5105,
      "3p": 5106,
      "3q": 5107,
      "3r": 5108,
      "3s": 5109,
      "3t": 5110,
      "3u": 5111,
      "3v": 5112,
      "3w": 5113,
      "3x": 5114,
      "3y": 5115,
      "3z": 5116,
      "3{": 5117,
      "3|": 5118,
      "3}": 5119,
      "3~": 5120,
      "3Â¡": 5121,
      "3Â¢": 5122,
      "3Â£": 5123,
      "3Â¤": 5124,
      "3Â¥": 5125,
      "3Â¦": 5126,
      "3Â§": 5127,
      "3Â¨": 5128,
      "3Â©": 5129,
      "3Âª": 5130,
      "3Â«": 5131,
      "3Â¬": 5132,
      "3Â®": 5133,
      "3Â¯": 5134,
      "3Â°": 5135,
      "3Â±": 5136,
      "3Â²": 5137,
      "3Â³": 5138,
      "3Â´": 5139,
      "3Âµ": 5140,
      "3Â¶": 5141,
      "3Â·": 5142,
      "3Â¸": 5143,
      "3Â¹": 5144,
      "3Âº": 5145,
      "3Â»": 5146,
      "3Â¼": 5147,
      "3Â½": 5148,
      "3Â¾": 5149,
      "3Â¿": 5150,
      "3Ã¡": 5151,
      "3Ã¢": 5152,
      "3Ã£": 5153,
      "3Ã¤": 5154,
      "3Ã¥": 5155,
      "3Ã¦": 5156,
      "3Ã§": 5157,
      "3Ã¨": 5158,
      "3Ã©": 5159,
      "3Ãª": 5160,
      "3Ã«": 5161,
      "3Ã¬": 5162,
      "3Ã®": 5163,
      "3Ã¯": 5164,
      "3Ã°": 5165,
      "3Ã±": 5166,
      "3Ã²": 5167,
      "3Ã³": 5168,
      "3Ã´": 5169,
      "3Ãµ": 5170,
      "3Ã¶": 5171,
      "3Ã·": 5172,
      "3Ã¸": 5173,
      "3Ã¹": 5174,
      "3Ãº": 5175,
      "3Ã»": 5176,
      "3Ã¼": 5177,
      "3Ã½": 5178,
      "3Ã¾": 5179,
      "3Ã¿": 5180,
      "3ÃĢ": 5181,
      "3Ãģ": 5182,
      "3ÃĤ": 5183,
      "3Ãĥ": 5184,
      "3ÃĦ": 5185,
      "3Ãħ": 5186,
      "3ÃĨ": 5187,
      "3Ãĩ": 5188,
      "3ÃĪ": 5189,
      "3Ãī": 5190,
      "3ÃĬ": 5191,
      "3Ãĭ": 5192,
      "3ÃĮ": 5193,
      "3Ãį": 5194,
      "3Ãİ": 5195,
      "3Ãı": 5196,
      "3ÃĲ": 5197,
      "3Ãĳ": 5198,
      "3ÃĴ": 5199,
      "3Ãĵ": 5200,
      "3ÃĶ": 5201,
      "3Ãķ": 5202,
      "3Ãĸ": 5203,
      "3ÃĹ": 5204,
      "3Ãĺ": 5205,
      "3ÃĻ": 5206,
      "3Ãļ": 5207,
      "3ÃĽ": 5208,
      "3Ãľ": 5209,
      "3ÃĿ": 5210,
      "3Ãŀ": 5211,
      "3ÃŁ": 5212,
      "3Ãł": 5213,
      "3ÃŃ": 5214,
      "3Ä¡": 5215,
      "3Ä¢": 5216,
      "3Ä£": 5217,
      "3Ä¤": 5218,
      "3Ä¥": 5219,
      "3Ä¦": 5220,
      "3Ä§": 5221,
      "3Ä¨": 5222,
      "3Ä©": 5223,
      "3Äª": 5224,
      "3Ä«": 5225,
      "3Ä¬": 5226,
      "3Ä®": 5227,
      "3Ä¯": 5228,
      "3Ä°": 5229,
      "3Ä±": 5230,
      "3Ä²": 5231,
      "3Ä³": 5232,
      "3Ä´": 5233,
      "3Äµ": 5234,
      "3Ä¶": 5235,
      "3Ä·": 5236,
      "3Ä¸": 5237,
      "3Ä¹": 5238,
      "3Äº": 5239,
      "3Ä»": 5240,
      "3Ä¼": 5241,
      "3Ä½": 5242,
      "3Ä¾": 5243,
      "3Ä¿": 5244,
      "3ÄĢ": 5245,
      "3Äģ": 5246,
      "3ÄĤ": 5247,
      "3Äĥ": 5248,
      "3ÄĦ": 5249,
      "3Äħ": 5250,
      "3ÄĨ": 5251,
      "3Äĩ": 5252,
      "3ÄĪ": 5253,
      "3Äī": 5254,
      "3ÄĬ": 5255,
      "3Äĭ": 5256,
      "3ÄĮ": 5257,
      "3Äį": 5258,
      "3Äİ": 5259,
      "3Äı": 5260,
      "3ÄĲ": 5261,
      "3Äĳ": 5262,
      "3ÄĴ": 5263,
      "3Äĵ": 5264,
      "3ÄĶ": 5265,
      "3Äķ": 5266,
      "3Äĸ": 5267,
      "3ÄĹ": 5268,
      "3Äĺ": 5269,
      "3ÄĻ": 5270,
      "3Äļ": 5271,
      "3ÄĽ": 5272,
      "3Äľ": 5273,
      "3ÄĿ": 5274,
      "3Äŀ": 5275,
      "3ÄŁ": 5276,
      "3Äł": 5277,
      "3ÄŃ": 5278,
      "3ÅĢ": 5279,
      "3Åģ": 5280,
      "3ÅĤ": 5281,
      "3Åĥ": 5282,
      "4!": 5283,
      "4\"": 5284,
      "4#": 5285,
      "4$": 5286,
      "4%": 5287,
      "4&": 5288,
      "4'": 5289,
      "4(": 5290,
      "4)": 5291,
      "4*": 5292,
      "4+": 5293,
      "4,": 5294,
      "4-": 5295,
      "4.": 5296,
      "4/": 5297,
      "40": 5298,
      "41": 5299,
      "42": 5300,
      "43": 5301,
      "44": 5302,
      "45": 5303,
      "46": 5304,
      "47": 5305,
      "48": 5306,
      "49": 5307,
      "4:": 5308,
      "4;": 5309,
      "4<": 5310,
      "4=": 5311,
      "4>": 5312,
      "4?": 5313,
      "4@": 5314,
      "4A": 5315,
      "4B": 5316,
      "4C": 5317,
      "4D": 5318,
      "4E": 5319,
      "4F": 5320,
      "4G": 5321,
      "4H": 5322,
      "4I": 5323,
      "4J": 5324,
      "4K": 5325,
      "4L": 5326,
      "4M": 5327,
      "4N": 5328,
      "4O": 5329,
      "4P": 5330,
      "4Q": 5331,
      "4R": 5332,
      "4S": 5333,
      "4T": 5334,
      "4U": 5335,
      "4V": 5336,
      "4W": 5337,
      "4X": 5338,
      "4Y": 5339,
      "4Z": 5340,
      "4[": 5341,
      "4\\": 5342,
      "4]": 5343,
      "4^": 5344,
      "4_": 5345,
      "4`": 5346,
      "4a": 5347,
      "4b": 5348,
      "4c": 5349,
      "4d": 5350,
      "4e": 5351,
      "4f": 5352,
      "4g": 5353,
      "4h": 5354,
      "4i": 5355,
      "4j": 5356,
      "4k": 5357,
      "4l": 5358,
      "4m": 5359,
      "4n": 5360,
      "4o": 5361,
      "4p": 5362,
      "4q": 5363,
      "4r": 5364,
      "4s": 5365,
      "4t": 5366,
      "4u": 5367,
      "4v": 5368,
      "4w": 5369,
      "4x": 5370,
      "4y": 5371,
      "4z": 5372,
      "4{": 5373,
      "4|": 5374,
      "4}": 5375,
      "4~": 5376,
      "4Â¡": 5377,
      "4Â¢": 5378,
      "4Â£": 5379,
      "4Â¤": 5380,
      "4Â¥": 5381,
      "4Â¦": 5382,
      "4Â§": 5383,
      "4Â¨": 5384,
      "4Â©": 5385,
      "4Âª": 5386,
      "4Â«": 5387,
      "4Â¬": 5388,
      "4Â®": 5389,
      "4Â¯": 5390,
      "4Â°": 5391,
      "4Â±": 5392,
      "4Â²": 5393,
      "4Â³": 5394,
      "4Â´": 5395,
      "4Âµ": 5396,
      "4Â¶": 5397,
      "4Â·": 5398,
      "4Â¸": 5399,
      "4Â¹": 5400,
      "4Âº": 5401,
      "4Â»": 5402,
      "4Â¼": 5403,
      "4Â½": 5404,
      "4Â¾": 5405,
      "4Â¿": 5406,
      "4Ã¡": 5407,
      "4Ã¢": 5408,
      "4Ã£": 5409,
      "4Ã¤": 5410,
      "4Ã¥": 5411,
      "4Ã¦": 5412,
      "4Ã§": 5413,
      "4Ã¨": 5414,
      "4Ã©": 5415,
      "4Ãª": 5416,
      "4Ã«": 5417,
      "4Ã¬": 5418,
      "4Ã®": 5419,
      "4Ã¯": 5420,
      "4Ã°": 5421,
      "4Ã±": 5422,
      "4Ã²": 5423,
      "4Ã³": 5424,
      "4Ã´": 5425,
      "4Ãµ": 5426,
      "4Ã¶": 5427,
      "4Ã·": 5428,
      "4Ã¸": 5429,
      "4Ã¹": 5430,
      "4Ãº": 5431,
      "4Ã»": 5432,
      "4Ã¼": 5433,
      "4Ã½": 5434,
      "4Ã¾": 5435,
      "4Ã¿": 5436,
      "4ÃĢ": 5437,
      "4Ãģ": 5438,
      "4ÃĤ": 5439,
      "4Ãĥ": 5440,
      "4ÃĦ": 5441,
      "4Ãħ": 5442,
      "4ÃĨ": 5443,
      "4Ãĩ": 5444,
      "4ÃĪ": 5445,
      "4Ãī": 5446,
      "4ÃĬ": 5447,
      "4Ãĭ": 5448,
      "4ÃĮ": 5449,
      "4Ãį": 5450,
      "4Ãİ": 5451,
      "4Ãı": 5452,
      "4ÃĲ": 5453,
      "4Ãĳ": 5454,
      "4ÃĴ": 5455,
      "4Ãĵ": 5456,
      "4ÃĶ": 5457,
      "4Ãķ": 5458,
      "4Ãĸ": 5459,
      "4ÃĹ": 5460,
      "4Ãĺ": 5461,
      "4ÃĻ": 5462,
      "4Ãļ": 5463,
      "4ÃĽ": 5464,
      "4Ãľ": 5465,
      "4ÃĿ": 5466,
      "4Ãŀ": 5467,
      "4ÃŁ": 5468,
      "4Ãł": 5469,
      "4ÃŃ": 5470,
      "4Ä¡": 5471,
      "4Ä¢": 5472,
      "4Ä£": 5473,
      "4Ä¤": 5474,
      "4Ä¥": 5475,
      "4Ä¦": 5476,
      "4Ä§": 5477,
      "4Ä¨": 5478,
      "4Ä©": 5479,
      "4Äª": 5480,
      "4Ä«": 5481,
      "4Ä¬": 5482,
      "4Ä®": 5483,
      "4Ä¯": 5484,
      "4Ä°": 5485,
      "4Ä±": 5486,
      "4Ä²": 5487,
      "4Ä³": 5488,
      "4Ä´": 5489,
      "4Äµ": 5490,
      "4Ä¶": 5491,
      "4Ä·": 5492,
      "4Ä¸": 5493,
      "4Ä¹": 5494,
      "4Äº": 5495,
      "4Ä»": 5496,
      "4Ä¼": 5497,
      "4Ä½": 5498,
      "4Ä¾": 5499,
      "4Ä¿": 5500,
      "4ÄĢ": 5501,
      "4Äģ": 5502,
      "4ÄĤ": 5503,
      "4Äĥ": 5504,
      "4ÄĦ": 5505,
      "4Äħ": 5506,
      "4ÄĨ": 5507,
      "4Äĩ": 5508,
      "4ÄĪ": 5509,
      "4Äī": 5510,
      "4ÄĬ": 5511,
      "4Äĭ": 5512,
      "4ÄĮ": 5513,
      "4Äį": 5514,
      "4Äİ": 5515,
      "4Äı": 5516,
      "4ÄĲ": 5517,
      "4Äĳ": 5518,
      "4ÄĴ": 5519,
      "4Äĵ": 5520,
      "4ÄĶ": 5521,
      "4Äķ": 5522,
      "4Äĸ": 5523,
      "4ÄĹ": 5524,
      "4Äĺ": 5525,
      "4ÄĻ": 5526,
      "4Äļ": 5527,
      "4ÄĽ": 5528,
      "4Äľ": 5529,
      "4ÄĿ": 5530,
      "4Äŀ": 5531,
      "4ÄŁ": 5532,
      "4Äł": 5533,
      "4ÄŃ": 5534,
      "4ÅĢ": 5535,
      "4Åģ": 5536,
      "4ÅĤ": 5537,
      "4Åĥ": 5538,
      "5!": 5539,
      "5\"": 5540,
      "5#": 5541,
      "5$": 5542,
      "5%": 5543,
      "5&": 5544,
      "5'": 5545,
      "5(": 5546,
      "5)": 5547,
      "5*": 5548,
      "5+": 5549,
      "5,": 5550,
      "5-": 5551,
      "5.": 5552,
      "5/": 5553,
      "50": 5554,
      "51": 5555,
      "52": 5556,
      "53": 5557,
      "54": 5558,
      "55": 5559,
      "56": 5560,
      "57": 5561,
      "58": 5562,
      "59": 5563,
      "5:": 5564,
      "5;": 5565,
      "5<": 5566,
      "5=": 5567,
      "5>": 5568,
      "5?": 5569,
      "5@": 5570,
      "5A": 5571,
      "5B": 5572,
      "5C": 5573,
      "5D": 5574,
      "5E": 5575,
      "5F": 5576,
      "5G": 5577,
      "5H": 5578,
      "5I": 5579,
      "5J": 5580,
      "5K": 5581,
      "5L": 5582,
      "5M": 5583,
      "5N": 5584,
      "5O": 5585,
      "5P": 5586,
      "5Q": 5587,
      "5R": 5588,
      "5S": 5589,
      "5T": 5590,
      "5U": 5591,
      "5V": 5592,
      "5W": 5593,
      "5X": 5594,
      "5Y": 5595,
      "5Z": 5596,
      "5[": 5597,
      "5\\": 5598,
      "5]": 5599,
      "5^": 5600,
      "5_": 5601,
      "5`": 5602,
      "5a": 5603,
      "5b": 5604,
      "5c": 5605,
      "5d": 5606,
      "5e": 5607,
      "5f": 5608,
      "5g": 5609,
      "5h": 5610,
      "5i": 5611,
      "5j": 5612,
      "5k": 5613,
      "5l": 5614,
      "5m": 5615,
      "5n": 5616,
      "5o": 5617,
      "5p": 5618,
      "5q": 5619,
      "5r": 5620,
      "5s": 5621,
      "5t": 5622,
      "5u": 5623,
      "5v": 5624,
      "5w": 5625,
      "5x": 5626,
      "5y": 5627,
      "5z": 5628,
      "5{": 5629,
      "5|": 5630,
      "5}": 5631,
      "5~": 5632,
      "5Â¡": 5633,
      "5Â¢": 5634,
      "5Â£": 5635,
      "5Â¤": 5636,
      "5Â¥": 5637,
      "5Â¦": 5638,
      "5Â§": 5639,
      "5Â¨": 5640,
      "5Â©": 5641,
      "5Âª": 5642,
      "5Â«": 5643,
      "5Â¬": 5644,
      "5Â®": 5645,
      "5Â¯": 5646,
      "5Â°": 5647,
      "5Â±": 5648,
      "5Â²": 5649,
      "5Â³": 5650,
      "5Â´": 5651,
      "5Âµ": 5652,
      "5Â¶": 5653,
      "5Â·": 5654,
      "5Â¸": 5655,
      "5Â¹": 5656,
      "5Âº": 5657,
      "5Â»": 5658,
      "5Â¼": 5659,
      "5Â½": 5660,
      "5Â¾": 5661,
      "5Â¿": 5662,
      "5Ã¡": 5663,
      "5Ã¢": 5664,
      "5Ã£": 5665,
      "5Ã¤": 5666,
      "5Ã¥": 5667,
      "5Ã¦": 5668,
      "5Ã§": 5669,
      "5Ã¨": 5670,
      "5Ã©": 5671,
      "5Ãª": 5672,
      "5Ã«": 5673,
      "5Ã¬": 5674,
      "5Ã®": 5675,
      "5Ã¯": 5676,
      "5Ã°": 5677,
      "5Ã±": 5678,
      "5Ã²": 5679,
      "5Ã³": 5680,
      "5Ã´": 5681,
      "5Ãµ": 5682,
      "5Ã¶": 5683,
      "5Ã·": 5684,
      "5Ã¸": 5685,
      "5Ã¹": 5686,
      "5Ãº": 5687,
      "5Ã»": 5688,
      "5Ã¼": 5689,
      "5Ã½": 5690,
      "5Ã¾": 5691,
      "5Ã¿": 5692,
      "5ÃĢ": 5693,
      "5Ãģ": 5694,
      "5ÃĤ": 5695,
      "5Ãĥ": 5696,
      "5ÃĦ": 5697,
      "5Ãħ": 5698,
      "5ÃĨ": 5699,
      "5Ãĩ": 5700,
      "5ÃĪ": 5701,
      "5Ãī": 5702,
      "5ÃĬ": 5703,
      "5Ãĭ": 5704,
      "5ÃĮ": 5705,
      "5Ãį": 5706,
      "5Ãİ": 5707,
      "5Ãı": 5708,
      "5ÃĲ": 5709,
      "5Ãĳ": 5710,
      "5ÃĴ": 5711,
      "5Ãĵ": 5712,
      "5ÃĶ": 5713,
      "5Ãķ": 5714,
      "5Ãĸ": 5715,
      "5ÃĹ": 5716,
      "5Ãĺ": 5717,
      "5ÃĻ": 5718,
      "5Ãļ": 5719,
      "5ÃĽ": 5720,
      "5Ãľ": 5721,
      "5ÃĿ": 5722,
      "5Ãŀ": 5723,
      "5ÃŁ": 5724,
      "5Ãł": 5725,
      "5ÃŃ": 5726,
      "5Ä¡": 5727,
      "5Ä¢": 5728,
      "5Ä£": 5729,
      "5Ä¤": 5730,
      "5Ä¥": 5731,
      "5Ä¦": 5732,
      "5Ä§": 5733,
      "5Ä¨": 5734,
      "5Ä©": 5735,
      "5Äª": 5736,
      "5Ä«": 5737,
      "5Ä¬": 5738,
      "5Ä®": 5739,
      "5Ä¯": 5740,
      "5Ä°": 5741,
      "5Ä±": 5742,
      "5Ä²": 5743,
      "5Ä³": 5744,
      "5Ä´": 5745,
      "5Äµ": 5746,
      "5Ä¶": 5747,
      "5Ä·": 5748,
      "5Ä¸": 5749,
      "5Ä¹": 5750,
      "5Äº": 5751,
      "5Ä»": 5752,
      "5Ä¼": 5753,
      "5Ä½": 5754,
      "5Ä¾": 5755,
      "5Ä¿": 5756,
      "5ÄĢ": 5757,
      "5Äģ": 5758,
      "5ÄĤ": 5759,
      "5Äĥ": 5760,
      "5ÄĦ": 5761,
      "5Äħ": 5762,
      "5ÄĨ": 5763,
      "5Äĩ": 5764,
      "5ÄĪ": 5765,
      "5Äī": 5766,
      "5ÄĬ": 5767,
      "5Äĭ": 5768,
      "5ÄĮ": 5769,
      "5Äį": 5770,
      "5Äİ": 5771,
      "5Äı": 5772,
      "5ÄĲ": 5773,
      "5Äĳ": 5774,
      "5ÄĴ": 5775,
      "5Äĵ": 5776,
      "5ÄĶ": 5777,
      "5Äķ": 5778,
      "5Äĸ": 5779,
      "5ÄĹ": 5780,
      "5Äĺ": 5781,
      "5ÄĻ": 5782,
      "5Äļ": 5783,
      "5ÄĽ": 5784,
      "5Äľ": 5785,
      "5ÄĿ": 5786,
      "5Äŀ": 5787,
      "5ÄŁ": 5788,
      "5Äł": 5789,
      "5ÄŃ": 5790,
      "5ÅĢ": 5791,
      "5Åģ": 5792,
      "5ÅĤ": 5793,
      "5Åĥ": 5794,
      "6!": 5795,
      "6\"": 5796,
      "6#": 5797,
      "6$": 5798,
      "6%": 5799,
      "6&": 5800,
      "6'": 5801,
      "6(": 5802,
      "6)": 5803,
      "6*": 5804,
      "6+": 5805,
      "6,": 5806,
      "6-": 5807,
      "6.": 5808,
      "6/": 5809,
      "60": 5810,
      "61": 5811,
      "62": 5812,
      "63": 5813,
      "64": 5814,
      "65": 5815,
      "66": 5816,
      "67": 5817,
      "68": 5818,
      "69": 5819,
      "6:": 5820,
      "6;": 5821,
      "6<": 5822,
      "6=": 5823,
      "6>": 5824,
      "6?": 5825,
      "6@": 5826,
      "6A": 5827,
      "6B": 5828,
      "6C": 5829,
      "6D": 5830,
      "6E": 5831,
      "6F": 5832,
      "6G": 5833,
      "6H": 5834,
      "6I": 5835,
      "6J": 5836,
      "6K": 5837,
      "6L": 5838,
      "6M": 5839,
      "6N": 5840,
      "6O": 5841,
      "6P": 5842,
      "6Q": 5843,
      "6R": 5844,
      "6S": 5845,
      "6T": 5846,
      "6U": 5847,
      "6V": 5848,
      "6W": 5849,
      "6X": 5850,
      "6Y": 5851,
      "6Z": 5852,
      "6[": 5853,
      "6\\": 5854,
      "6]": 5855,
      "6^": 5856,
      "6_": 5857,
      "6`": 5858,
      "6a": 5859,
      "6b": 5860,
      "6c": 5861,
      "6d": 5862,
      "6e": 5863,
      "6f": 5864,
      "6g": 5865,
      "6h": 5866,
      "6i": 5867,
      "6j": 5868,
      "6k": 5869,
      "6l": 5870,
      "6m": 5871,
      "6n": 5872,
      "6o": 5873,
      "6p": 5874,
      "6q": 5875,
      "6r": 5876,
      "6s": 5877,
      "6t": 5878,
      "6u": 5879,
      "6v": 5880,
      "6w": 5881,
      "6x": 5882,
      "6y": 5883,
      "6z": 5884,
      "6{": 5885,
      "6|": 5886,
      "6}": 5887,
      "6~": 5888,
      "6Â¡": 5889,
      "6Â¢": 5890,
      "6Â£": 5891,
      "6Â¤": 5892,
      "6Â¥": 5893,
      "6Â¦": 5894,
      "6Â§": 5895,
      "6Â¨": 5896,
      "6Â©": 5897,
      "6Âª": 5898,
      "6Â«": 5899,
      "6Â¬": 5900,
      "6Â®": 5901,
      "6Â¯": 5902,
      "6Â°": 5903,
      "6Â±": 5904,
      "6Â²": 5905,
      "6Â³": 5906,
      "6Â´": 5907,
      "6Âµ": 5908,
      "6Â¶": 5909,
      "6Â·": 5910,
      "6Â¸": 5911,
      "6Â¹": 5912,
      "6Âº": 5913,
      "6Â»": 5914,
      "6Â¼": 5915,
      "6Â½": 5916,
      "6Â¾": 5917,
      "6Â¿": 5918,
      "6Ã¡": 5919,
      "6Ã¢": 5920,
      "6Ã£": 5921,
      "6Ã¤": 5922,
      "6Ã¥": 5923,
      "6Ã¦": 5924,
      "6Ã§": 5925,
      "6Ã¨": 5926,
      "6Ã©": 5927,
      "6Ãª": 5928,
      "6Ã«": 5929,
      "6Ã¬": 5930,
      "6Ã®": 5931,
      "6Ã¯": 5932,
      "6Ã°": 5933,
      "6Ã±": 5934,
      "6Ã²": 5935,
      "6Ã³": 5936,
      "6Ã´": 5937,
      "6Ãµ": 5938,
      "6Ã¶": 5939,
      "6Ã·": 5940,
      "6Ã¸": 5941,
      "6Ã¹": 5942,
      "6Ãº": 5943,
      "6Ã»": 5944,
      "6Ã¼": 5945,
      "6Ã½": 5946,
      "6Ã¾": 5947,
      "6Ã¿": 5948,
      "6ÃĢ": 5949,
      "6Ãģ": 5950,
      "6ÃĤ": 5951,
      "6Ãĥ": 5952,
      "6ÃĦ": 5953,
      "6Ãħ": 5954,
      "6ÃĨ": 5955,
      "6Ãĩ": 5956,
      "6ÃĪ": 5957,
      "6Ãī": 5958,
      "6ÃĬ": 5959,
      "6Ãĭ": 5960,
      "6ÃĮ": 5961,
      "6Ãį": 5962,
      "6Ãİ": 5963,
      "6Ãı": 5964,
      "6ÃĲ": 5965,
      "6Ãĳ": 5966,
      "6ÃĴ": 5967,
      "6Ãĵ": 5968,
      "6ÃĶ": 5969,
      "6Ãķ": 5970,
      "6Ãĸ": 5971,
      "6ÃĹ": 5972,
      "6Ãĺ": 5973,
      "6ÃĻ": 5974,
      "6Ãļ": 5975,
      "6ÃĽ": 5976,
      "6Ãľ": 5977,
      "6ÃĿ": 5978,
      "6Ãŀ": 5979,
      "6ÃŁ": 5980,
      "6Ãł": 5981,
      "6ÃŃ": 5982,
      "6Ä¡": 5983,
      "6Ä¢": 5984,
      "6Ä£": 5985,
      "6Ä¤": 5986,
      "6Ä¥": 5987,
      "6Ä¦": 5988,
      "6Ä§": 5989,
      "6Ä¨": 5990,
      "6Ä©": 5991,
      "6Äª": 5992,
      "6Ä«": 5993,
      "6Ä¬": 5994,
      "6Ä®": 5995,
      "6Ä¯": 5996,
      "6Ä°": 5997,
      "6Ä±": 5998,
      "6Ä²": 5999,
      "6Ä³": 6000,
      "6Ä´": 6001,
      "6Äµ": 6002,
      "6Ä¶": 6003,
      "6Ä·": 6004,
      "6Ä¸": 6005,
      "6Ä¹": 6006,
      "6Äº": 6007,
      "6Ä»": 6008,
      "6Ä¼": 6009,
      "6Ä½": 6010,
      "6Ä¾": 6011,
      "6Ä¿": 6012,
      "6ÄĢ": 6013,
      "6Äģ": 6014,
      "6ÄĤ": 6015,
      "6Äĥ": 6016,
      "6ÄĦ": 6017,
      "6Äħ": 6018,
      "6ÄĨ": 6019,
      "6Äĩ": 6020,
      "6ÄĪ": 6021,
      "6Äī": 6022,
      "6ÄĬ": 6023,
      "6Äĭ": 6024,
      "6ÄĮ": 6025,
      "6Äį": 6026,
      "6Äİ": 6027,
      "6Äı": 6028,
      "6ÄĲ": 6029,
      "6Äĳ": 6030,
      "6ÄĴ": 6031,
      "6Äĵ": 6032,
      "6ÄĶ": 6033,
      "6Äķ": 6034,
      "6Äĸ": 6035,
      "6ÄĹ": 6036,
      "6Äĺ": 6037,
      "6ÄĻ": 6038,
      "6Äļ": 6039,
      "6ÄĽ": 6040,
      "6Äľ": 6041,
      "6ÄĿ": 6042,
      "6Äŀ": 6043,
      "6ÄŁ": 6044,
      "6Äł": 6045,
      "6ÄŃ": 6046,
      "6ÅĢ": 6047,
      "6Åģ": 6048,
      "6ÅĤ": 6049,
      "6Åĥ": 6050,
      "7!": 6051,
      "7\"": 6052,
      "7#": 6053,
      "7$": 6054,
      "7%": 6055,
      "7&": 6056,
      "7'": 6057,
      "7(": 6058,
      "7)": 6059,
      "7*": 6060,
      "7+": 6061,
      "7,": 6062,
      "7-": 6063,
      "7.": 6064,
      "7/": 6065,
      "70": 6066,
      "71": 6067,
      "72": 6068,
      "73": 6069,
      "74": 6070,
      "75": 6071,
      "76": 6072,
      "77": 6073,
      "78": 6074,
      "79": 6075,
      "7:": 6076,
      "7;": 6077,
      "7<": 6078,
      "7=": 6079,
      "7>": 6080,
      "7?": 6081,
      "7@": 6082,
      "7A": 6083,
      "7B": 6084,
      "7C": 6085,
      "7D": 6086,
      "7E": 6087,
      "7F": 6088,
      "7G": 6089,
      "7H": 6090,
      "7I": 6091,
      "7J": 6092,
      "7K": 6093,
      "7L": 6094,
      "7M": 6095,
      "7N": 6096,
      "7O": 6097,
      "7P": 6098,
      "7Q": 6099,
      "7R": 6100,
      "7S": 6101,
      "7T": 6102,
      "7U": 6103,
      "7V": 6104,
      "7W": 6105,
      "7X": 6106,
      "7Y": 6107,
      "7Z": 6108,
      "7[": 6109,
      "7\\": 6110,
      "7]": 6111,
      "7^": 6112,
      "7_": 6113,
      "7`": 6114,
      "7a": 6115,
      "7b": 6116,
      "7c": 6117,
      "7d": 6118,
      "7e": 6119,
      "7f": 6120,
      "7g": 6121,
      "7h": 6122,
      "7i": 6123,
      "7j": 6124,
      "7k": 6125,
      "7l": 6126,
      "7m": 6127,
      "7n": 6128,
      "7o": 6129,
      "7p": 6130,
      "7q": 6131,
      "7r": 6132,
      "7s": 6133,
      "7t": 6134,
      "7u": 6135,
      "7v": 6136,
      "7w": 6137,
      "7x": 6138,
      "7y": 6139,
      "7z": 6140,
      "7{": 6141,
      "7|": 6142,
      "7}": 6143,
      "7~": 6144,
      "7Â¡": 6145,
      "7Â¢": 6146,
      "7Â£": 6147,
      "7Â¤": 6148,
      "7Â¥": 6149,
      "7Â¦": 6150,
      "7Â§": 6151,
      "7Â¨": 6152,
      "7Â©": 6153,
      "7Âª": 6154,
      "7Â«": 6155,
      "7Â¬": 6156,
      "7Â®": 6157,
      "7Â¯": 6158,
      "7Â°": 6159,
      "7Â±": 6160,
      "7Â²": 6161,
      "7Â³": 6162,
      "7Â´": 6163,
      "7Âµ": 6164,
      "7Â¶": 6165,
      "7Â·": 6166,
      "7Â¸": 6167,
      "7Â¹": 6168,
      "7Âº": 6169,
      "7Â»": 6170,
      "7Â¼": 6171,
      "7Â½": 6172,
      "7Â¾": 6173,
      "7Â¿": 6174,
      "7Ã¡": 6175,
      "7Ã¢": 6176,
      "7Ã£": 6177,
      "7Ã¤": 6178,
      "7Ã¥": 6179,
      "7Ã¦": 6180,
      "7Ã§": 6181,
      "7Ã¨": 6182,
      "7Ã©": 6183,
      "7Ãª": 6184,
      "7Ã«": 6185,
      "7Ã¬": 6186,
      "7Ã®": 6187,
      "7Ã¯": 6188,
      "7Ã°": 6189,
      "7Ã±": 6190,
      "7Ã²": 6191,
      "7Ã³": 6192,
      "7Ã´": 6193,
      "7Ãµ": 6194,
      "7Ã¶": 6195,
      "7Ã·": 6196,
      "7Ã¸": 6197,
      "7Ã¹": 6198,
      "7Ãº": 6199,
      "7Ã»": 6200,
      "7Ã¼": 6201,
      "7Ã½": 6202,
      "7Ã¾": 6203,
      "7Ã¿": 6204,
      "7ÃĢ": 6205,
      "7Ãģ": 6206,
      "7ÃĤ": 6207,
      "7Ãĥ": 6208,
      "7ÃĦ": 6209,
      "7Ãħ": 6210,
      "7ÃĨ": 6211,
      "7Ãĩ": 6212,
      "7ÃĪ": 6213,
      "7Ãī": 6214,
      "7ÃĬ": 6215,
      "7Ãĭ": 6216,
      "7ÃĮ": 6217,
      "7Ãį": 6218,
      "7Ãİ": 6219,
      "7Ãı": 6220,
      "7ÃĲ": 6221,
      "7Ãĳ": 6222,
      "7ÃĴ": 6223,
      "7Ãĵ": 6224,
      "7ÃĶ": 6225,
      "7Ãķ": 6226,
      "7Ãĸ": 6227,
      "7ÃĹ": 6228,
      "7Ãĺ": 6229,
      "7ÃĻ": 6230,
      "7Ãļ": 6231,
      "7ÃĽ": 6232,
      "7Ãľ": 6233,
      "7ÃĿ": 6234,
      "7Ãŀ": 6235,
      "7ÃŁ": 6236,
      "7Ãł": 6237,
      "7ÃŃ": 6238,
      "7Ä¡": 6239,
      "7Ä¢": 6240,
      "7Ä£": 6241,
      "7Ä¤": 6242,
      "7Ä¥": 6243,
      "7Ä¦": 6244,
      "7Ä§": 6245,
      "7Ä¨": 6246,
      "7Ä©": 6247,
      "7Äª": 6248,
      "7Ä«": 6249,
      "7Ä¬": 6250,
      "7Ä®": 6251,
      "7Ä¯": 6252,
      "7Ä°": 6253,
      "7Ä±": 6254,
      "7Ä²": 6255,
      "7Ä³": 6256,
      "7Ä´": 6257,
      "7Äµ": 6258,
      "7Ä¶": 6259,
      "7Ä·": 6260,
      "7Ä¸": 6261,
      "7Ä¹": 6262,
      "7Äº": 6263,
      "7Ä»": 6264,
      "7Ä¼": 6265,
      "7Ä½": 6266,
      "7Ä¾": 6267,
      "7Ä¿": 6268,
      "7ÄĢ": 6269,
      "7Äģ": 6270,
      "7ÄĤ": 6271,
      "7Äĥ": 6272,
      "7ÄĦ": 6273,
      "7Äħ": 6274,
      "7ÄĨ": 6275,
      "7Äĩ": 6276,
      "7ÄĪ": 6277,
      "7Äī": 6278,
      "7ÄĬ": 6279,
      "7Äĭ": 6280,
      "7ÄĮ": 6281,
      "7Äį": 6282,
      "7Äİ": 6283,
      "7Äı": 6284,
      "7ÄĲ": 6285,
      "7Äĳ": 6286,
      "7ÄĴ": 6287,
      "7Äĵ": 6288,
      "7ÄĶ": 6289,
      "7Äķ": 6290,
      "7Äĸ": 6291,
      "7ÄĹ": 6292,
      "7Äĺ": 6293,
      "7ÄĻ": 6294,
      "7Äļ": 6295,
      "7ÄĽ": 6296,
      "7Äľ": 6297,
      "7ÄĿ": 6298,
      "7Äŀ": 6299,
      "7ÄŁ": 6300,
      "7Äł": 6301,
      "7ÄŃ": 6302,
      "7ÅĢ": 6303,
      "7Åģ": 6304,
      "7ÅĤ": 6305,
      "7Åĥ": 6306,
      "8!": 6307,
      "8\"": 6308,
      "8#": 6309,
      "8$": 6310,
      "8%": 6311,
      "8&": 6312,
      "8'": 6313,
      "8(": 6314,
      "8)": 6315,
      "8*": 6316,
      "8+": 6317,
      "8,": 6318,
      "8-": 6319,
      "8.": 6320,
      "8/": 6321,
      "80": 6322,
      "81": 6323,
      "82": 6324,
      "83": 6325,
      "84": 6326,
      "85": 6327,
      "86": 6328,
      "87": 6329,
      "88": 6330,
      "89": 6331,
      "8:": 6332,
      "8;": 6333,
      "8<": 6334,
      "8=": 6335,
      "8>": 6336,
      "8?": 6337,
      "8@": 6338,
      "8A": 6339,
      "8B": 6340,
      "8C": 6341,
      "8D": 6342,
      "8E": 6343,
      "8F": 6344,
      "8G": 6345,
      "8H": 6346,
      "8I": 6347,
      "8J": 6348,
      "8K": 6349,
      "8L": 6350,
      "8M": 6351,
      "8N": 6352,
      "8O": 6353,
      "8P": 6354,
      "8Q": 6355,
      "8R": 6356,
      "8S": 6357,
      "8T": 6358,
      "8U": 6359,
      "8V": 6360,
      "8W": 6361,
      "8X": 6362,
      "8Y": 6363,
      "8Z": 6364,
      "8[": 6365,
      "8\\": 6366,
      "8]": 6367,
      "8^": 6368,
      "8_": 6369,
      "8`": 6370,
      "8a": 6371,
      "8b": 6372,
      "8c": 6373,
      "8d": 6374,
      "8e": 6375,
      "8f": 6376,
      "8g": 6377,
      "8h": 6378,
      "8i": 6379,
      "8j": 6380,
      "8k": 6381,
      "8l": 6382,
      "8m": 6383,
      "8n": 6384,
      "8o": 6385,
      "8p": 6386,
      "8q": 6387,
      "8r": 6388,
      "8s": 6389,
      "8t": 6390,
      "8u": 6391,
      "8v": 6392,
      "8w": 6393,
      "8x": 6394,
      "8y": 6395,
      "8z": 6396,
      "8{": 6397,
      "8|": 6398,
      "8}": 6399,
      "8~": 6400,
      "8Â¡": 6401,
      "8Â¢": 6402,
      "8Â£": 6403,
      "8Â¤": 6404,
      "8Â¥": 6405,
      "8Â¦": 6406,
      "8Â§": 6407,
      "8Â¨": 6408,
      "8Â©": 6409,
      "8Âª": 6410,
      "8Â«": 6411,
      "8Â¬": 6412,
      "8Â®": 6413,
      "8Â¯": 6414,
      "8Â°": 6415,
      "8Â±": 6416,
      "8Â²": 6417,
      "8Â³": 6418,
      "8Â´": 6419,
      "8Âµ": 6420,
      "8Â¶": 6421,
      "8Â·": 6422,
      "8Â¸": 6423,
      "8Â¹": 6424,
      "8Âº": 6425,
      "8Â»": 6426,
      "8Â¼": 6427,
      "8Â½": 6428,
      "8Â¾": 6429,
      "8Â¿": 6430,
      "8Ã¡": 6431,
      "8Ã¢": 6432,
      "8Ã£": 6433,
      "8Ã¤": 6434,
      "8Ã¥": 6435,
      "8Ã¦": 6436,
      "8Ã§": 6437,
      "8Ã¨": 6438,
      "8Ã©": 6439,
      "8Ãª": 6440,
      "8Ã«": 6441,
      "8Ã¬": 6442,
      "8Ã®": 6443,
      "8Ã¯": 6444,
      "8Ã°": 6445,
      "8Ã±": 6446,
      "8Ã²": 6447,
      "8Ã³": 6448,
      "8Ã´": 6449,
      "8Ãµ": 6450,
      "8Ã¶": 6451,
      "8Ã·": 6452,
      "8Ã¸": 6453,
      "8Ã¹": 6454,
      "8Ãº": 6455,
      "8Ã»": 6456,
      "8Ã¼": 6457,
      "8Ã½": 6458,
      "8Ã¾": 6459,
      "8Ã¿": 6460,
      "8ÃĢ": 6461,
      "8Ãģ": 6462,
      "8ÃĤ": 6463,
      "8Ãĥ": 6464,
      "8ÃĦ": 6465,
      "8Ãħ": 6466,
      "8ÃĨ": 6467,
      "8Ãĩ": 6468,
      "8ÃĪ": 6469,
      "8Ãī": 6470,
      "8ÃĬ": 6471,
      "8Ãĭ": 6472,
      "8ÃĮ": 6473,
      "8Ãį": 6474,
      "8Ãİ": 6475,
      "8Ãı": 6476,
      "8ÃĲ": 6477,
      "8Ãĳ": 6478,
      "8ÃĴ": 6479,
      "8Ãĵ": 6480,
      "8ÃĶ": 6481,
      "8Ãķ": 6482,
      "8Ãĸ": 6483,
      "8ÃĹ": 6484,
      "8Ãĺ": 6485,
      "8ÃĻ": 6486,
      "8Ãļ": 6487,
      "8ÃĽ": 6488,
      "8Ãľ": 6489,
      "8ÃĿ": 6490,
      "8Ãŀ": 6491,
      "8ÃŁ": 6492,
      "8Ãł": 6493,
      "8ÃŃ": 6494,
      "8Ä¡": 6495,
      "8Ä¢": 6496,
      "8Ä£": 6497,
      "8Ä¤": 6498,
      "8Ä¥": 6499,
      "8Ä¦": 6500,
      "8Ä§": 6501,
      "8Ä¨": 6502,
      "8Ä©": 6503,
      "8Äª": 6504,
      "8Ä«": 6505,
      "8Ä¬": 6506,
      "8Ä®": 6507,
      "8Ä¯": 6508,
      "8Ä°": 6509,
      "8Ä±": 6510,
      "8Ä²": 6511,
      "8Ä³": 6512,
      "8Ä´": 6513,
      "8Äµ": 6514,
      "8Ä¶": 6515,
      "8Ä·": 6516,
      "8Ä¸": 6517,
      "8Ä¹": 6518,
      "8Äº": 6519,
      "8Ä»": 6520,
      "8Ä¼": 6521,
      "8Ä½": 6522,
      "8Ä¾": 6523,
      "8Ä¿": 6524,
      "8ÄĢ": 6525,
      "8Äģ": 6526,
      "8ÄĤ": 6527,
      "8Äĥ": 6528,
      "8ÄĦ": 6529,
      "8Äħ": 6530,
      "8ÄĨ": 6531,
      "8Äĩ": 6532,
      "8ÄĪ": 6533,
      "8Äī": 6534,
      "8ÄĬ": 6535,
      "8Äĭ": 6536,
      "8ÄĮ": 6537,
      "8Äį": 6538,
      "8Äİ": 6539,
      "8Äı": 6540,
      "8ÄĲ": 6541,
      "8Äĳ": 6542,
      "8ÄĴ": 6543,
      "8Äĵ": 6544,
      "8ÄĶ": 6545,
      "8Äķ": 6546,
      "8Äĸ": 6547,
      "8ÄĹ": 6548,
      "8Äĺ": 6549,
      "8ÄĻ": 6550,
      "8Äļ": 6551,
      "8ÄĽ": 6552,
      "8Äľ": 6553,
      "8ÄĿ": 6554,
      "8Äŀ": 6555,
      "8ÄŁ": 6556,
      "8Äł": 6557,
      "8ÄŃ": 6558,
      "8ÅĢ": 6559,
      "8Åģ": 6560,
      "8ÅĤ": 6561,
      "8Åĥ": 6562,
      "9!": 6563,
      "9\"": 6564,
      "9#": 6565,
      "9$": 6566,
      "9%": 6567,
      "9&": 6568,
      "9'": 6569,
      "9(": 6570,
      "9)": 6571,
      "9*": 6572,
      "9+": 6573,
      "9,": 6574,
      "9-": 6575,
      "9.": 6576,
      "9/": 6577,
      "90": 6578,
      "91": 6579,
      "92": 6580,
      "93": 6581,
      "94": 6582,
      "95": 6583,
      "96": 6584,
      "97": 6585,
      "98": 6586,
      "99": 6587,
      "9:": 6588,
      "9;": 6589,
      "9<": 6590,
      "9=": 6591,
      "9>": 6592,
      "9?": 6593,
      "9@": 6594,
      "9A": 6595,
      "9B": 6596,
      "9C": 6597,
      "9D": 6598,
      "9E": 6599,
      "9F": 6600,
      "9G": 6601,
      "9H": 6602,
      "9I": 6603,
      "9J": 6604,
      "9K": 6605,
      "9L": 6606,
      "9M": 6607,
      "9N": 6608,
      "9O": 6609,
      "9P": 6610,
      "9Q": 6611,
      "9R": 6612,
      "9S": 6613,
      "9T": 6614,
      "9U": 6615,
      "9V": 6616,
      "9W": 6617,
      "9X": 6618,
      "9Y": 6619,
      "9Z": 6620,
      "9[": 6621,
      "9\\": 6622,
      "9]": 6623,
      "9^": 6624,
      "9_": 6625,
      "9`": 6626,
      "9a": 6627,
      "9b": 6628,
      "9c": 6629,
      "9d": 6630,
      "9e": 6631,
      "9f": 6632,
      "9g": 6633,
      "9h": 6634,
      "9i": 6635,
      "9j": 6636,
      "9k": 6637,
      "9l": 6638,
      "9m": 6639,
      "9n": 6640,
      "9o": 6641,
      "9p": 6642,
      "9q": 6643,
      "9r": 6644,
      "9s": 6645,
      "9t": 6646,
      "9u": 6647,
      "9v": 6648,
      "9w": 6649,
      "9x": 6650,
      "9y": 6651,
      "9z": 6652,
      "9{": 6653,
      "9|": 6654,
      "9}": 6655,
      "9~": 6656,
      "9Â¡": 6657,
      "9Â¢": 6658,
      "9Â£": 6659,
      "9Â¤": 6660,
      "9Â¥": 6661,
      "9Â¦": 6662,
      "9Â§": 6663,
      "9Â¨": 6664,
      "9Â©": 6665,
      "9Âª": 6666,
      "9Â«": 6667,
      "9Â¬": 6668,
      "9Â®": 6669,
      "9Â¯": 6670,
      "9Â°": 6671,
      "9Â±": 6672,
      "9Â²": 6673,
      "9Â³": 6674,
      "9Â´": 6675,
      "9Âµ": 6676,
      "9Â¶": 6677,
      "9Â·": 6678,
      "9Â¸": 6679,
      "9Â¹": 6680,
      "9Âº": 6681,
      "9Â»": 6682,
      "9Â¼": 6683,
      "9Â½": 6684,
      "9Â¾": 6685,
      "9Â¿": 6686,
      "9Ã¡": 6687,
      "9Ã¢": 6688,
      "9Ã£": 6689,
      "9Ã¤": 6690,
      "9Ã¥": 6691,
      "9Ã¦": 6692,
      "9Ã§": 6693,
      "9Ã¨": 6694,
      "9Ã©": 6695,
      "9Ãª": 6696,
      "9Ã«": 6697,
      "9Ã¬": 6698,
      "9Ã®": 6699,
      "9Ã¯": 6700,
      "9Ã°": 6701,
      "9Ã±": 6702,
      "9Ã²": 6703,
      "9Ã³": 6704,
      "9Ã´": 6705,
      "9Ãµ": 6706,
      "9Ã¶": 6707,
      "9Ã·": 6708,
      "9Ã¸": 6709,
      "9Ã¹": 6710,
      "9Ãº": 6711,
      "9Ã»": 6712,
      "9Ã¼": 6713,
      "9Ã½": 6714,
      "9Ã¾": 6715,
      "9Ã¿": 6716,
      "9ÃĢ": 6717,
      "9Ãģ": 6718,
      "9ÃĤ": 6719,
      "9Ãĥ": 6720,
      "9ÃĦ": 6721,
      "9Ãħ": 6722,
      "9ÃĨ": 6723,
      "9Ãĩ": 6724,
      "9ÃĪ": 6725,
      "9Ãī": 6726,
      "9ÃĬ": 6727,
      "9Ãĭ": 6728,
      "9ÃĮ": 6729,
      "9Ãį": 6730,
      "9Ãİ": 6731,
      "9Ãı": 6732,
      "9ÃĲ": 6733,
      "9Ãĳ": 6734,
      "9ÃĴ": 6735,
      "9Ãĵ": 6736,
      "9ÃĶ": 6737,
      "9Ãķ": 6738,
      "9Ãĸ": 6739,
      "9ÃĹ": 6740,
      "9Ãĺ": 6741,
      "9ÃĻ": 6742,
      "9Ãļ": 6743,
      "9ÃĽ": 6744,
      "9Ãľ": 6745,
      "9ÃĿ": 6746,
      "9Ãŀ": 6747,
      "9ÃŁ": 6748,
      "9Ãł": 6749,
      "9ÃŃ": 6750,
      "9Ä¡": 6751,
      "9Ä¢": 6752,
      "9Ä£": 6753,
      "9Ä¤": 6754,
      "9Ä¥": 6755,
      "9Ä¦": 6756,
      "9Ä§": 6757,
      "9Ä¨": 6758,
      "9Ä©": 6759,
      "9Äª": 6760,
      "9Ä«": 6761,
      "9Ä¬": 6762,
      "9Ä®": 6763,
      "9Ä¯": 6764,
      "9Ä°": 6765,
      "9Ä±": 6766,
      "9Ä²": 6767,
      "9Ä³": 6768,
      "9Ä´": 6769,
      "9Äµ": 6770,
      "9Ä¶": 6771,
      "9Ä·": 6772,
      "9Ä¸": 6773,
      "9Ä¹": 6774,
      "9Äº": 6775,
      "9Ä»": 6776,
      "9Ä¼": 6777,
      "9Ä½": 6778,
      "9Ä¾": 6779,
      "9Ä¿": 6780,
      "9ÄĢ": 6781,
      "9Äģ": 6782,
      "9ÄĤ": 6783,
      "9Äĥ": 6784,
      "9ÄĦ": 6785,
      "9Äħ": 6786,
      "9ÄĨ": 6787,
      "9Äĩ": 6788,
      "9ÄĪ": 6789,
      "9Äī": 6790,
      "9ÄĬ": 6791,
      "9Äĭ": 6792,
      "9ÄĮ": 6793,
      "9Äį": 6794,
      "9Äİ": 6795,
      "9Äı": 6796,
      "9ÄĲ": 6797,
      "9Äĳ": 6798,
      "9ÄĴ": 6799,
      "9Äĵ": 6800,
      "9ÄĶ": 6801,
      "9Äķ": 6802,
      "9Äĸ": 6803,
      "9ÄĹ": 6804,
      "9Äĺ": 6805,
      "9ÄĻ": 6806,
      "9Äļ": 6807,
      "9ÄĽ": 6808,
      "9Äľ": 6809,
      "9ÄĿ": 6810,
      "9Äŀ": 6811,
      "9ÄŁ": 6812,
      "9Äł": 6813,
      "9ÄŃ": 6814,
      "9ÅĢ": 6815,
      "9Åģ": 6816,
      "9ÅĤ": 6817,
      "9Åĥ": 6818,
      ":!": 6819,
      ":\"": 6820,
      ":#": 6821,
      ":$": 6822,
      ":%": 6823,
      ":&": 6824,
      ":'": 6825,
      ":(": 6826,
      ":)": 6827,
      ":*": 6828,
      ":+": 6829,
      ":,": 6830,
      ":-": 6831,
      ":.": 6832,
      ":/": 6833,
      ":0": 6834,
      ":1": 6835,
      ":2": 6836,
      ":3": 6837,
      ":4": 6838,
      ":5": 6839,
      ":6": 6840,
      ":7": 6841,
      ":8": 6842,
      ":9": 6843,
      "::": 6844,
      ":;": 6845,
      ":<": 6846,
      ":=": 6847,
      ":>": 6848,
      ":?": 6849,
      ":@": 6850,
      ":A": 6851,
      ":B": 6852,
      ":C": 6853,
      ":D": 6854,
      ":E": 6855,
      ":F": 6856,
      ":G": 6857,
      ":H": 6858,
      ":I": 6859,
      ":J": 6860,
      ":K": 6861,
      ":L": 6862,
      ":M": 6863,
      ":N": 6864,
      ":O": 6865,
      ":P": 6866,
      ":Q": 6867,
      ":R": 6868,
      ":S": 6869,
      ":T": 6870,
      ":U": 6871,
      ":V": 6872,
      ":W": 6873,
      ":X": 6874,
      ":Y": 6875,
      ":Z": 6876,
      ":[": 6877,
      ":\\": 6878,
      ":]": 6879,
      ":^": 6880,
      ":_": 6881,
      ":`": 6882,
      ":a": 6883,
      ":b": 6884,
      ":c": 6885,
      ":d": 6886,
      ":e": 6887,
      ":f": 6888,
      ":g": 6889,
      ":h": 6890,
      ":i": 6891,
      ":j": 6892,
      ":k": 6893,
      ":l": 6894,
      ":m": 6895,
      ":n": 6896,
      ":o": 6897,
      ":p": 6898,
      ":q": 6899,
      ":r": 6900,
      ":s": 6901,
      ":t": 6902,
      ":u": 6903,
      ":v": 6904,
      ":w": 6905,
      ":x": 6906,
      ":y": 6907,
      ":z": 6908,
      ":{": 6909,
      ":|": 6910,
      ":}": 6911,
      ":~": 6912,
      ":Â¡": 6913,
      ":Â¢": 6914,
      ":Â£": 6915,
      ":Â¤": 6916,
      ":Â¥": 6917,
      ":Â¦": 6918,
      ":Â§": 6919,
      ":Â¨": 6920,
      ":Â©": 6921,
      ":Âª": 6922,
      ":Â«": 6923,
      ":Â¬": 6924,
      ":Â®": 6925,
      ":Â¯": 6926,
      ":Â°": 6927,
      ":Â±": 6928,
      ":Â²": 6929,
      ":Â³": 6930,
      ":Â´": 6931,
      ":Âµ": 6932,
      ":Â¶": 6933,
      ":Â·": 6934,
      ":Â¸": 6935,
      ":Â¹": 6936,
      ":Âº": 6937,
      ":Â»": 6938,
      ":Â¼": 6939,
      ":Â½": 6940,
      ":Â¾": 6941,
      ":Â¿": 6942,
      ":Ã¡": 6943,
      ":Ã¢": 6944,
      ":Ã£": 6945,
      ":Ã¤": 6946,
      ":Ã¥": 6947,
      ":Ã¦": 6948,
      ":Ã§": 6949,
      ":Ã¨": 6950,
      ":Ã©": 6951,
      ":Ãª": 6952,
      ":Ã«": 6953,
      ":Ã¬": 6954,
      ":Ã®": 6955,
      ":Ã¯": 6956,
      ":Ã°": 6957,
      ":Ã±": 6958,
      ":Ã²": 6959,
      ":Ã³": 6960,
      ":Ã´": 6961,
      ":Ãµ": 6962,
      ":Ã¶": 6963,
      ":Ã·": 6964,
      ":Ã¸": 6965,
      ":Ã¹": 6966,
      ":Ãº": 6967,
      ":Ã»": 6968,
      ":Ã¼": 6969,
      ":Ã½": 6970,
      ":Ã¾": 6971,
      ":Ã¿": 6972,
      ":ÃĢ": 6973,
      ":Ãģ": 6974,
      ":ÃĤ": 6975,
      ":Ãĥ": 6976,
      ":ÃĦ": 6977,
      ":Ãħ": 6978,
      ":ÃĨ": 6979,
      ":Ãĩ": 6980,
      ":ÃĪ": 6981,
      ":Ãī": 6982,
      ":ÃĬ": 6983,
      ":Ãĭ": 6984,
      ":ÃĮ": 6985,
      ":Ãį": 6986,
      ":Ãİ": 6987,
      ":Ãı": 6988,
      ":ÃĲ": 6989,
      ":Ãĳ": 6990,
      ":ÃĴ": 6991,
      ":Ãĵ": 6992,
      ":ÃĶ": 6993,
      ":Ãķ": 6994,
      ":Ãĸ": 6995,
      ":ÃĹ": 6996,
      ":Ãĺ": 6997,
      ":ÃĻ": 6998,
      ":Ãļ": 6999,
      ":ÃĽ": 7000,
      ":Ãľ": 7001,
      ":ÃĿ": 7002,
      ":Ãŀ": 7003,
      ":ÃŁ": 7004,
      ":Ãł": 7005,
      ":ÃŃ": 7006,
      ":Ä¡": 7007,
      ":Ä¢": 7008,
      ":Ä£": 7009,
      ":Ä¤": 7010,
      ":Ä¥": 7011,
      ":Ä¦": 7012,
      ":Ä§": 7013,
      ":Ä¨": 7014,
      ":Ä©": 7015,
      ":Äª": 7016,
      ":Ä«": 7017,
      ":Ä¬": 7018,
      ":Ä®": 7019,
      ":Ä¯": 7020,
      ":Ä°": 7021,
      ":Ä±": 7022,
      ":Ä²": 7023,
      ":Ä³": 7024,
      ":Ä´": 7025,
      ":Äµ": 7026,
      ":Ä¶": 7027,
      ":Ä·": 7028,
      ":Ä¸": 7029,
      ":Ä¹": 7030,
      ":Äº": 7031,
      ":Ä»": 7032,
      ":Ä¼": 7033,
      ":Ä½": 7034,
      ":Ä¾": 7035,
      ":Ä¿": 7036,
      ":ÄĢ": 7037,
      ":Äģ": 7038,
      ":ÄĤ": 7039,
      ":Äĥ": 7040,
      ":ÄĦ": 7041,
      ":Äħ": 7042,
      ":ÄĨ": 7043,
      ":Äĩ": 7044,
      ":ÄĪ": 7045,
      ":Äī": 7046,
      ":ÄĬ": 7047,
      ":Äĭ": 7048,
      ":ÄĮ": 7049,
      ":Äį": 7050,
      ":Äİ": 7051,
      ":Äı": 7052,
      ":ÄĲ": 7053,
      ":Äĳ": 7054,
      ":ÄĴ": 7055,
      ":Äĵ": 7056,
      ":ÄĶ": 7057,
      ":Äķ": 7058,
      ":Äĸ": 7059,
      ":ÄĹ": 7060,
      ":Äĺ": 7061,
      ":ÄĻ": 7062,
      ":Äļ": 7063,
      ":ÄĽ": 7064,
      ":Äľ": 7065,
      ":ÄĿ": 7066,
      ":Äŀ": 7067,
      ":ÄŁ": 7068,
      ":Äł": 7069,
      ":ÄŃ": 7070,
      ":ÅĢ": 7071,
      ":Åģ": 7072,
      ":ÅĤ": 7073,
      ":Åĥ": 7074,
      ";!": 7075,
      ";\"": 7076,
      ";#": 7077,
      ";$": 7078,
      ";%": 7079,
      ";&": 7080,
      ";'": 7081,
      ";(": 7082,
      ";)": 7083,
      ";*": 7084,
      ";+": 7085,
      ";,": 7086,
      ";-": 7087,
      ";.": 7088,
      ";/": 7089,
      ";0": 7090,
      ";1": 7091,
      ";2": 7092,
      ";3": 7093,
      ";4": 7094,
      ";5": 7095,
      ";6": 7096,
      ";7": 7097,
      ";8": 7098,
      ";9": 7099,
      ";:": 7100,
      ";;": 7101,
      ";<": 7102,
      ";=": 7103,
      ";>": 7104,
      ";?": 7105,
      ";@": 7106,
      ";A": 7107,
      ";B": 7108,
      ";C": 7109,
      ";D": 7110,
      ";E": 7111,
      ";F": 7112,
      ";G": 7113,
      ";H": 7114,
      ";I": 7115,
      ";J": 7116,
      ";K": 7117,
      ";L": 7118,
      ";M": 7119,
      ";N": 7120,
      ";O": 7121,
      ";P": 7122,
      ";Q": 7123,
      ";R": 7124,
      ";S": 7125,
      ";T": 7126,
      ";U": 7127,
      ";V": 7128,
      ";W": 7129,
      ";X": 7130,
      ";Y": 7131,
      ";Z": 7132,
      ";[": 7133,
      ";\\": 7134,
      ";]": 7135,
      ";^": 7136,
      ";_": 7137,
      ";`": 7138,
      ";a": 7139,
      ";b": 7140,
      ";c": 7141,
      ";d": 7142,
      ";e": 7143,
      ";f": 7144,
      ";g": 7145,
      ";h": 7146,
      ";i": 7147,
      ";j": 7148,
      ";k": 7149,
      ";l": 7150,
      ";m": 7151,
      ";n": 7152,
      ";o": 7153,
      ";p": 7154,
      ";q": 7155,
      ";r": 7156,
      ";s": 7157,
      ";t": 7158,
      ";u": 7159,
      ";v": 7160,
      ";w": 7161,
      ";x": 7162,
      ";y": 7163,
      ";z": 7164,
      ";{": 7165,
      ";|": 7166,
      ";}": 7167,
      ";~": 7168,
      ";Â¡": 7169,
      ";Â¢": 7170,
      ";Â£": 7171,
      ";Â¤": 7172,
      ";Â¥": 7173,
      ";Â¦": 7174,
      ";Â§": 7175,
      ";Â¨": 7176,
      ";Â©": 7177,
      ";Âª": 7178,
      ";Â«": 7179,
      ";Â¬": 7180,
      ";Â®": 7181,
      ";Â¯": 7182,
      ";Â°": 7183,
      ";Â±": 7184,
      ";Â²": 7185,
      ";Â³": 7186,
      ";Â´": 7187,
      ";Âµ": 7188,
      ";Â¶": 7189,
      ";Â·": 7190,
      ";Â¸": 7191,
      ";Â¹": 7192,
      ";Âº": 7193,
      ";Â»": 7194,
      ";Â¼": 7195,
      ";Â½": 7196,
      ";Â¾": 7197,
      ";Â¿": 7198,
      ";Ã¡": 7199,
      ";Ã¢": 7200,
      ";Ã£": 7201,
      ";Ã¤": 7202,
      ";Ã¥": 7203,
      ";Ã¦": 7204,
      ";Ã§": 7205,
      ";Ã¨": 7206,
      ";Ã©": 7207,
      ";Ãª": 7208,
      ";Ã«": 7209,
      ";Ã¬": 7210,
      ";Ã®": 7211,
      ";Ã¯": 7212,
      ";Ã°": 7213,
      ";Ã±": 7214,
      ";Ã²": 7215,
      ";Ã³": 7216,
      ";Ã´": 7217,
      ";Ãµ": 7218,
      ";Ã¶": 7219,
      ";Ã·": 7220,
      ";Ã¸": 7221,
      ";Ã¹": 7222,
      ";Ãº": 7223,
      ";Ã»": 7224,
      ";Ã¼": 7225,
      ";Ã½": 7226,
      ";Ã¾": 7227,
      ";Ã¿": 7228,
      ";ÃĢ": 7229,
      ";Ãģ": 7230,
      ";ÃĤ": 7231,
      ";Ãĥ": 7232,
      ";ÃĦ": 7233,
      ";Ãħ": 7234,
      ";ÃĨ": 7235,
      ";Ãĩ": 7236,
      ";ÃĪ": 7237,
      ";Ãī": 7238,
      ";ÃĬ": 7239,
      ";Ãĭ": 7240,
      ";ÃĮ": 7241,
      ";Ãį": 7242,
      ";Ãİ": 7243,
      ";Ãı": 7244,
      ";ÃĲ": 7245,
      ";Ãĳ": 7246,
      ";ÃĴ": 7247,
      ";Ãĵ": 7248,
      ";ÃĶ": 7249,
      ";Ãķ": 7250,
      ";Ãĸ": 7251,
      ";ÃĹ": 7252,
      ";Ãĺ": 7253,
      ";ÃĻ": 7254,
      ";Ãļ": 7255,
      ";ÃĽ": 7256,
      ";Ãľ": 7257,
      ";ÃĿ": 7258,
      ";Ãŀ": 7259,
      ";ÃŁ": 7260,
      ";Ãł": 7261,
      ";ÃŃ": 7262,
      ";Ä¡": 7263,
      ";Ä¢": 7264,
      ";Ä£": 7265,
      ";Ä¤": 7266,
      ";Ä¥": 7267,
      ";Ä¦": 7268,
      ";Ä§": 7269,
      ";Ä¨": 7270,
      ";Ä©": 7271,
      ";Äª": 7272,
      ";Ä«": 7273,
      ";Ä¬": 7274,
      ";Ä®": 7275,
      ";Ä¯": 7276,
      ";Ä°": 7277,
      ";Ä±": 7278,
      ";Ä²": 7279,
      ";Ä³": 7280,
      ";Ä´": 7281,
      ";Äµ": 7282,
      ";Ä¶": 7283,
      ";Ä·": 7284,
      ";Ä¸": 7285,
      ";Ä¹": 7286,
      ";Äº": 7287,
      ";Ä»": 7288,
      ";Ä¼": 7289,
      ";Ä½": 7290,
      ";Ä¾": 7291,
      ";Ä¿": 7292,
      ";ÄĢ": 7293,
      ";Äģ": 7294,
      ";ÄĤ": 7295,
      ";Äĥ": 7296,
      ";ÄĦ": 7297,
      ";Äħ": 7298,
      ";ÄĨ": 7299,
      ";Äĩ": 7300,
      ";ÄĪ": 7301,
      ";Äī": 7302,
      ";ÄĬ": 7303,
      ";Äĭ": 7304,
      ";ÄĮ": 7305,
      ";Äį": 7306,
      ";Äİ": 7307,
      ";Äı": 7308,
      ";ÄĲ": 7309,
      ";Äĳ": 7310,
      ";ÄĴ": 7311,
      ";Äĵ": 7312,
      ";ÄĶ": 7313,
      ";Äķ": 7314,
      ";Äĸ": 7315,
      ";ÄĹ": 7316,
      ";Äĺ": 7317,
      ";ÄĻ": 7318,
      ";Äļ": 7319,
      ";ÄĽ": 7320,
      ";Äľ": 7321,
      ";ÄĿ": 7322,
      ";Äŀ": 7323,
      ";ÄŁ": 7324,
      ";Äł": 7325,
      ";ÄŃ": 7326,
      ";ÅĢ": 7327,
      ";Åģ": 7328,
      ";ÅĤ": 7329,
      ";Åĥ": 7330,
      "<!": 7331,
      "<\"": 7332,
      "<#": 7333,
      "<$": 7334,
      "<%": 7335,
      "<&": 7336,
      "<'": 7337,
      "<(": 7338,
      "<)": 7339,
      "<*": 7340,
      "<+": 7341,
      "<,": 7342,
      "<-": 7343,
      "<.": 7344,
      "</": 7345,
      "<0": 7346,
      "<1": 7347,
      "<2": 7348,
      "<3": 7349,
      "<4": 7350,
      "<5": 7351,
      "<6": 7352,
      "<7": 7353,
      "<8": 7354,
      "<9": 7355,
      "<:": 7356,
      "<;": 7357,
      "<<": 7358,
      "<=": 7359,
      "<>": 7360,
      "<?": 7361,
      "<@": 7362,
      "<A": 7363,
      "<B": 7364,
      "<C": 7365,
      "<D": 7366,
      "<E": 7367,
      "<F": 7368,
      "<G": 7369,
      "<H": 7370,
      "<I": 7371,
      "<J": 7372,
      "<K": 7373,
      "<L": 7374,
      "<M": 7375,
      "<N": 7376,
      "<O": 7377,
      "<P": 7378,
      "<Q": 7379,
      "<R": 7380,
      "<S": 7381,
      "<T": 7382,
      "<U": 7383,
      "<V": 7384,
      "<W": 7385,
      "<X": 7386,
      "<Y": 7387,
      "<Z": 7388,
      "<[": 7389,
      "<\\": 7390,
      "<]": 7391,
      "<^": 7392,
      "<_": 7393,
      "<`": 7394,
      "<a": 7395,
      "<b": 7396,
      "<c": 7397,
      "<d": 7398,
      "<e": 7399,
      "<f": 7400,
      "<g": 7401,
      "<h": 7402,
      "<i": 7403,
      "<j": 7404,
      "<k": 7405,
      "<l": 7406,
      "<m": 7407,
      "<n": 7408,
      "<o": 7409,
      "<p": 7410,
      "<q": 7411,
      "<r": 7412,
      "<s": 7413,
      "<t": 7414,
      "<u": 7415,
      "<v": 7416,
      "<w": 7417,
      "<x": 7418,
      "<y": 7419,
      "<z": 7420,
      "<{": 7421,
      "<|": 7422,
      "<}": 7423,
      "<~": 7424,
      "<Â¡": 7425,
      "<Â¢": 7426,
      "<Â£": 7427,
      "<Â¤": 7428,
      "<Â¥": 7429,
      "<Â¦": 7430,
      "<Â§": 7431,
      "<Â¨": 7432,
      "<Â©": 7433,
      "<Âª": 7434,
      "<Â«": 7435,
      "<Â¬": 7436,
      "<Â®": 7437,
      "<Â¯": 7438,
      "<Â°": 7439,
      "<Â±": 7440,
      "<Â²": 7441,
      "<Â³": 7442,
      "<Â´": 7443,
      "<Âµ": 7444,
      "<Â¶": 7445,
      "<Â·": 7446,
      "<Â¸": 7447,
      "<Â¹": 7448,
      "<Âº": 7449,
      "<Â»": 7450,
      "<Â¼": 7451,
      "<Â½": 7452,
      "<Â¾": 7453,
      "<Â¿": 7454,
      "<Ã¡": 7455,
      "<Ã¢": 7456,
      "<Ã£": 7457,
      "<Ã¤": 7458,
      "<Ã¥": 7459,
      "<Ã¦": 7460,
      "<Ã§": 7461,
      "<Ã¨": 7462,
      "<Ã©": 7463,
      "<Ãª": 7464,
      "<Ã«": 7465,
      "<Ã¬": 7466,
      "<Ã®": 7467,
      "<Ã¯": 7468,
      "<Ã°": 7469,
      "<Ã±": 7470,
      "<Ã²": 7471,
      "<Ã³": 7472,
      "<Ã´": 7473,
      "<Ãµ": 7474,
      "<Ã¶": 7475,
      "<Ã·": 7476,
      "<Ã¸": 7477,
      "<Ã¹": 7478,
      "<Ãº": 7479,
      "<Ã»": 7480,
      "<Ã¼": 7481,
      "<Ã½": 7482,
      "<Ã¾": 7483,
      "<Ã¿": 7484,
      "<ÃĢ": 7485,
      "<Ãģ": 7486,
      "<ÃĤ": 7487,
      "<Ãĥ": 7488,
      "<ÃĦ": 7489,
      "<Ãħ": 7490,
      "<ÃĨ": 7491,
      "<Ãĩ": 7492,
      "<ÃĪ": 7493,
      "<Ãī": 7494,
      "<ÃĬ": 7495,
      "<Ãĭ": 7496,
      "<ÃĮ": 7497,
      "<Ãį": 7498,
      "<Ãİ": 7499,
      "<Ãı": 7500,
      "<ÃĲ": 7501,
      "<Ãĳ": 7502,
      "<ÃĴ": 7503,
      "<Ãĵ": 7504,
      "<ÃĶ": 7505,
      "<Ãķ": 7506,
      "<Ãĸ": 7507,
      "<ÃĹ": 7508,
      "<Ãĺ": 7509,
      "<ÃĻ": 7510,
      "<Ãļ": 7511,
      "<ÃĽ": 7512,
      "<Ãľ": 7513,
      "<ÃĿ": 7514,
      "<Ãŀ": 7515,
      "<ÃŁ": 7516,
      "<Ãł": 7517,
      "<ÃŃ": 7518,
      "<Ä¡": 7519,
      "<Ä¢": 7520,
      "<Ä£": 7521,
      "<Ä¤": 7522,
      "<Ä¥": 7523,
      "<Ä¦": 7524,
      "<Ä§": 7525,
      "<Ä¨": 7526,
      "<Ä©": 7527,
      "<Äª": 7528,
      "<Ä«": 7529,
      "<Ä¬": 7530,
      "<Ä®": 7531,
      "<Ä¯": 7532,
      "<Ä°": 7533,
      "<Ä±": 7534,
      "<Ä²": 7535,
      "<Ä³": 7536,
      "<Ä´": 7537,
      "<Äµ": 7538,
      "<Ä¶": 7539,
      "<Ä·": 7540,
      "<Ä¸": 7541,
      "<Ä¹": 7542,
      "<Äº": 7543,
      "<Ä»": 7544,
      "<Ä¼": 7545,
      "<Ä½": 7546,
      "<Ä¾": 7547,
      "<Ä¿": 7548,
      "<ÄĢ": 7549,
      "<Äģ": 7550,
      "<ÄĤ": 7551,
      "<Äĥ": 7552,
      "<ÄĦ": 7553,
      "<Äħ": 7554,
      "<ÄĨ": 7555,
      "<Äĩ": 7556,
      "<ÄĪ": 7557,
      "<Äī": 7558,
      "<ÄĬ": 7559,
      "<Äĭ": 7560,
      "<ÄĮ": 7561,
      "<Äį": 7562,
      "<Äİ": 7563,
      "<Äı": 7564,
      "<ÄĲ": 7565,
      "<Äĳ": 7566,
      "<ÄĴ": 7567,
      "<Äĵ": 7568,
      "<ÄĶ": 7569,
      "<Äķ": 7570,
      "<Äĸ": 7571,
      "<ÄĹ": 7572,
      "<Äĺ": 7573,
      "<ÄĻ": 7574,
      "<Äļ": 7575,
      "<ÄĽ": 7576,
      "<Äľ": 7577,
      "<ÄĿ": 7578,
      "<Äŀ": 7579,
      "<ÄŁ": 7580,
      "<Äł": 7581,
      "<ÄŃ": 7582,
      "<ÅĢ": 7583,
      "<Åģ": 7584,
      "<ÅĤ": 7585,
      "<Åĥ": 7586,
      "=!": 7587,
      "=\"": 7588,
      "=#": 7589,
      "=$": 7590,
      "=%": 7591,
      "=&": 7592,
      "='": 7593,
      "=(": 7594,
      "=)": 7595,
      "=*": 7596,
      "=+": 7597,
      "=,": 7598,
      "=-": 7599,
      "=.": 7600,
      "=/": 7601,
      "=0": 7602,
      "=1": 7603,
      "=2": 7604,
      "=3": 7605,
      "=4": 7606,
      "=5": 7607,
      "=6": 7608,
      "=7": 7609,
      "=8": 7610,
      "=9": 7611,
      "=:": 7612,
      "=;": 7613,
      "=<": 7614,
      "==": 7615,
      "=>": 7616,
      "=?": 7617,
      "=@": 7618,
      "=A": 7619,
      "=B": 7620,
      "=C": 7621,
      "=D": 7622,
      "=E": 7623,
      "=F": 7624,
      "=G": 7625,
      "=H": 7626,
      "=I": 7627,
      "=J": 7628,
      "=K": 7629,
      "=L": 7630,
      "=M": 7631,
      "=N": 7632,
      "=O": 7633,
      "=P": 7634,
      "=Q": 7635,
      "=R": 7636,
      "=S": 7637,
      "=T": 7638,
      "=U": 7639,
      "=V": 7640,
      "=W": 7641,
      "=X": 7642,
      "=Y": 7643,
      "=Z": 7644,
      "=[": 7645,
      "=\\": 7646,
      "=]": 7647,
      "=^": 7648,
      "=_": 7649,
      "=`": 7650,
      "=a": 7651,
      "=b": 7652,
      "=c": 7653,
      "=d": 7654,
      "=e": 7655,
      "=f": 7656,
      "=g": 7657,
      "=h": 7658,
      "=i": 7659,
      "=j": 7660,
      "=k": 7661,
      "=l": 7662,
      "=m": 7663,
      "=n": 7664,
      "=o": 7665,
      "=p": 7666,
      "=q": 7667,
      "=r": 7668,
      "=s": 7669,
      "=t": 7670,
      "=u": 7671,
      "=v": 7672,
      "=w": 7673,
      "=x": 7674,
      "=y": 7675,
      "=z": 7676,
      "={": 7677,
      "=|": 7678,
      "=}": 7679,
      "=~": 7680,
      "=Â¡": 7681,
      "=Â¢": 7682,
      "=Â£": 7683,
      "=Â¤": 7684,
      "=Â¥": 7685,
      "=Â¦": 7686,
      "=Â§": 7687,
      "=Â¨": 7688,
      "=Â©": 7689,
      "=Âª": 7690,
      "=Â«": 7691,
      "=Â¬": 7692,
      "=Â®": 7693,
      "=Â¯": 7694,
      "=Â°": 7695,
      "=Â±": 7696,
      "=Â²": 7697,
      "=Â³": 7698,
      "=Â´": 7699,
      "=Âµ": 7700,
      "=Â¶": 7701,
      "=Â·": 7702,
      "=Â¸": 7703,
      "=Â¹": 7704,
      "=Âº": 7705,
      "=Â»": 7706,
      "=Â¼": 7707,
      "=Â½": 7708,
      "=Â¾": 7709,
      "=Â¿": 7710,
      "=Ã¡": 7711,
      "=Ã¢": 7712,
      "=Ã£": 7713,
      "=Ã¤": 7714,
      "=Ã¥": 7715,
      "=Ã¦": 7716,
      "=Ã§": 7717,
      "=Ã¨": 7718,
      "=Ã©": 7719,
      "=Ãª": 7720,
      "=Ã«": 7721,
      "=Ã¬": 7722,
      "=Ã®": 7723,
      "=Ã¯": 7724,
      "=Ã°": 7725,
      "=Ã±": 7726,
      "=Ã²": 7727,
      "=Ã³": 7728,
      "=Ã´": 7729,
      "=Ãµ": 7730,
      "=Ã¶": 7731,
      "=Ã·": 7732,
      "=Ã¸": 7733,
      "=Ã¹": 7734,
      "=Ãº": 7735,
      "=Ã»": 7736,
      "=Ã¼": 7737,
      "=Ã½": 7738,
      "=Ã¾": 7739,
      "=Ã¿": 7740,
      "=ÃĢ": 7741,
      "=Ãģ": 7742,
      "=ÃĤ": 7743,
      "=Ãĥ": 7744,
      "=ÃĦ": 7745,
      "=Ãħ": 7746,
      "=ÃĨ": 7747,
      "=Ãĩ": 7748,
      "=ÃĪ": 7749,
      "=Ãī": 7750,
      "=ÃĬ": 7751,
      "=Ãĭ": 7752,
      "=ÃĮ": 7753,
      "=Ãį": 7754,
      "=Ãİ": 7755,
      "=Ãı": 7756,
      "=ÃĲ": 7757,
      "=Ãĳ": 7758,
      "=ÃĴ": 7759,
      "=Ãĵ": 7760,
      "=ÃĶ": 7761,
      "=Ãķ": 7762,
      "=Ãĸ": 7763,
      "=ÃĹ": 7764,
      "=Ãĺ": 7765,
      "=ÃĻ": 7766,
      "=Ãļ": 7767,
      "=ÃĽ": 7768,
      "=Ãľ": 7769,
      "=ÃĿ": 7770,
      "=Ãŀ": 7771,
      "=ÃŁ": 7772,
      "=Ãł": 7773,
      "=ÃŃ": 7774,
      "=Ä¡": 7775,
      "=Ä¢": 7776,
      "=Ä£": 7777,
      "=Ä¤": 7778,
      "=Ä¥": 7779,
      "=Ä¦": 7780,
      "=Ä§": 7781,
      "=Ä¨": 7782,
      "=Ä©": 7783,
      "=Äª": 7784,
      "=Ä«": 7785,
      "=Ä¬": 7786,
      "=Ä®": 7787,
      "=Ä¯": 7788,
      "=Ä°": 7789,
      "=Ä±": 7790,
      "=Ä²": 7791,
      "=Ä³": 7792,
      "=Ä´": 7793,
      "=Äµ": 7794,
      "=Ä¶": 7795,
      "=Ä·": 7796,
      "=Ä¸": 7797,
      "=Ä¹": 7798,
      "=Äº": 7799,
      "=Ä»": 7800,
      "=Ä¼": 7801,
      "=Ä½": 7802,
      "=Ä¾": 7803,
      "=Ä¿": 7804,
      "=ÄĢ": 7805,
      "=Äģ": 7806,
      "=ÄĤ": 7807,
      "=Äĥ": 7808,
      "=ÄĦ": 7809,
      "=Äħ": 7810,
      "=ÄĨ": 7811,
      "=Äĩ": 7812,
      "=ÄĪ": 7813,
      "=Äī": 7814,
      "=ÄĬ": 7815,
      "=Äĭ": 7816,
      "=ÄĮ": 7817,
      "=Äį": 7818,
      "=Äİ": 7819,
      "=Äı": 7820,
      "=ÄĲ": 7821,
      "=Äĳ": 7822,
      "=ÄĴ": 7823,
      "=Äĵ": 7824,
      "=ÄĶ": 7825,
      "=Äķ": 7826,
      "=Äĸ": 7827,
      "=ÄĹ": 7828,
      "=Äĺ": 7829,
      "=ÄĻ": 7830,
      "=Äļ": 7831,
      "=ÄĽ": 7832,
      "=Äľ": 7833,
      "=ÄĿ": 7834,
      "=Äŀ": 7835,
      "=ÄŁ": 7836,
      "=Äł": 7837,
      "=ÄŃ": 7838,
      "=ÅĢ": 7839,
      "=Åģ": 7840,
      "=ÅĤ": 7841,
      "=Åĥ": 7842,
      ">!": 7843,
      ">\"": 7844,
      ">#": 7845,
      ">$": 7846,
      ">%": 7847,
      ">&": 7848,
      ">'": 7849,
      ">(": 7850,
      ">)": 7851,
      ">*": 7852,
      ">+": 7853,
      ">,": 7854,
      ">-": 7855,
      ">.": 7856,
      ">/": 7857,
      ">0": 7858,
      ">1": 7859,
      ">2": 7860,
      ">3": 7861,
      ">4": 7862,
      ">5": 7863,
      ">6": 7864,
      ">7": 7865,
      ">8": 7866,
      ">9": 7867,
      ">:": 7868,
      ">;": 7869,
      "><": 7870,
      ">=": 7871,
      ">>": 7872,
      ">?": 7873,
      ">@": 7874,
      ">A": 7875,
      ">B": 7876,
      ">C": 7877,
      ">D": 7878,
      ">E": 7879,
      ">F": 7880,
      ">G": 7881,
      ">H": 7882,
      ">I": 7883,
      ">J": 7884,
      ">K": 7885,
      ">L": 7886,
      ">M": 7887,
      ">N": 7888,
      ">O": 7889,
      ">P": 7890,
      ">Q": 7891,
      ">R": 7892,
      ">S": 7893,
      ">T": 7894,
      ">U": 7895,
      ">V": 7896,
      ">W": 7897,
      ">X": 7898,
      ">Y": 7899,
      ">Z": 7900,
      ">[": 7901,
      ">\\": 7902,
      ">]": 7903,
      ">^": 7904,
      ">_": 7905,
      ">`": 7906,
      ">a": 7907,
      ">b": 7908,
      ">c": 7909,
      ">d": 7910,
      ">e": 7911,
      ">f": 7912,
      ">g": 7913,
      ">h": 7914,
      ">i": 7915,
      ">j": 7916,
      ">k": 7917,
      ">l": 7918,
      ">m": 7919,
      ">n": 7920,
      ">o": 7921,
      ">p": 7922,
      ">q": 7923,
      ">r": 7924,
      ">s": 7925,
      ">t": 7926,
      ">u": 7927,
      ">v": 7928,
      ">w": 7929,
      ">x": 7930,
      ">y": 7931,
      ">z": 7932,
      ">{": 7933,
      ">|": 7934,
      ">}": 7935,
      ">~": 7936,
      ">Â¡": 7937,
      ">Â¢": 7938,
      ">Â£": 7939,
      ">Â¤": 7940,
      ">Â¥": 7941,
      ">Â¦": 7942,
      ">Â§": 7943,
      ">Â¨": 7944,
      ">Â©": 7945,
      ">Âª": 7946,
      ">Â«": 7947,
      ">Â¬": 7948,
      ">Â®": 7949,
      ">Â¯": 7950,
      ">Â°": 7951,
      ">Â±": 7952,
      ">Â²": 7953,
      ">Â³": 7954,
      ">Â´": 7955,
      ">Âµ": 7956,
      ">Â¶": 7957,
      ">Â·": 7958,
      ">Â¸": 7959,
      ">Â¹": 7960,
      ">Âº": 7961,
      ">Â»": 7962,
      ">Â¼": 7963,
      ">Â½": 7964,
      ">Â¾": 7965,
      ">Â¿": 7966,
      ">Ã¡": 7967,
      ">Ã¢": 7968,
      ">Ã£": 7969,
      ">Ã¤": 7970,
      ">Ã¥": 7971,
      ">Ã¦": 7972,
      ">Ã§": 7973,
      ">Ã¨": 7974,
      ">Ã©": 7975,
      ">Ãª": 7976,
      ">Ã«": 7977,
      ">Ã¬": 7978,
      ">Ã®": 7979,
      ">Ã¯": 7980,
      ">Ã°": 7981,
      ">Ã±": 7982,
      ">Ã²": 7983,
      ">Ã³": 7984,
      ">Ã´": 7985,
      ">Ãµ": 7986,
      ">Ã¶": 7987,
      ">Ã·": 7988,
      ">Ã¸": 7989,
      ">Ã¹": 7990,
      ">Ãº": 7991,
      ">Ã»": 7992,
      ">Ã¼": 7993,
      ">Ã½": 7994,
      ">Ã¾": 7995,
      ">Ã¿": 7996,
      ">ÃĢ": 7997,
      ">Ãģ": 7998,
      ">ÃĤ": 7999,
      ">Ãĥ": 8000,
      ">ÃĦ": 8001,
      ">Ãħ": 8002,
      ">ÃĨ": 8003,
      ">Ãĩ": 8004,
      ">ÃĪ": 8005,
      ">Ãī": 8006,
      ">ÃĬ": 8007,
      ">Ãĭ": 8008,
      ">ÃĮ": 8009,
      ">Ãį": 8010,
      ">Ãİ": 8011,
      ">Ãı": 8012,
      ">ÃĲ": 8013,
      ">Ãĳ": 8014,
      ">ÃĴ": 8015,
      ">Ãĵ": 8016,
      ">ÃĶ": 8017,
      ">Ãķ": 8018,
      ">Ãĸ": 8019,
      ">ÃĹ": 8020,
      ">Ãĺ": 8021,
      ">ÃĻ": 8022,
      ">Ãļ": 8023,
      ">ÃĽ": 8024,
      ">Ãľ": 8025,
      ">ÃĿ": 8026,
      ">Ãŀ": 8027,
      ">ÃŁ": 8028,
      ">Ãł": 8029,
      ">ÃŃ": 8030,
      ">Ä¡": 8031,
      ">Ä¢": 8032,
      ">Ä£": 8033,
      ">Ä¤": 8034,
      ">Ä¥": 8035,
      ">Ä¦": 8036,
      ">Ä§": 8037,
      ">Ä¨": 8038,
      ">Ä©": 8039,
      ">Äª": 8040,
      ">Ä«": 8041,
      ">Ä¬": 8042,
      ">Ä®": 8043,
      ">Ä¯": 8044,
      ">Ä°": 8045,
      ">Ä±": 8046,
      ">Ä²": 8047,
      ">Ä³": 8048,
      ">Ä´": 8049,
      ">Äµ": 8050,
      ">Ä¶": 8051,
      ">Ä·": 8052,
      ">Ä¸": 8053,
      ">Ä¹": 8054,
      ">Äº": 8055,
      ">Ä»": 8056,
      ">Ä¼": 8057,
      ">Ä½": 8058,
      ">Ä¾": 8059,
      ">Ä¿": 8060,
      ">ÄĢ": 8061,
      ">Äģ": 8062,
      ">ÄĤ": 8063,
      ">Äĥ": 8064,
      ">ÄĦ": 8065,
      ">Äħ": 8066,
      ">ÄĨ": 8067,
      ">Äĩ": 8068,
      ">ÄĪ": 8069,
      ">Äī": 8070,
      ">ÄĬ": 8071,
      ">Äĭ": 8072,
      ">ÄĮ": 8073,
      ">Äį": 8074,
      ">Äİ": 8075,
      ">Äı": 8076,
      ">ÄĲ": 8077,
      ">Äĳ": 8078,
      ">ÄĴ": 8079,
      ">Äĵ": 8080,
      ">ÄĶ": 8081,
      ">Äķ": 8082,
      ">Äĸ": 8083,
      ">ÄĹ": 8084,
      ">Äĺ": 8085,
      ">ÄĻ": 8086,
      ">Äļ": 8087,
      ">ÄĽ": 8088,
      ">Äľ": 8089,
      ">ÄĿ": 8090,
      ">Äŀ": 8091,
      ">ÄŁ": 8092,
      ">Äł": 8093,
      ">ÄŃ": 8094,
      ">ÅĢ": 8095,
      ">Åģ": 8096,
      ">ÅĤ": 8097,
      ">Åĥ": 8098,
      "?!": 8099,
      "?\"": 8100,
      "?#": 8101,
      "?$": 8102,
      "?%": 8103,
      "?&": 8104,
      "?'": 8105,
      "?(": 8106,
      "?)": 8107,
      "?*": 8108,
      "?+": 8109,
      "?,": 8110,
      "?-": 8111,
      "?.": 8112,
      "?/": 8113,
      "?0": 8114,
      "?1": 8115,
      "?2": 8116,
      "?3": 8117,
      "?4": 8118,
      "?5": 8119,
      "?6": 8120,
      "?7": 8121,
      "?8": 8122,
      "?9": 8123,
      "?:": 8124,
      "?;": 8125,
      "?<": 8126,
      "?=": 8127,
      "?>": 8128,
      "??": 8129,
      "?@": 8130,
      "?A": 8131,
      "?B": 8132,
      "?C": 8133,
      "?D": 8134,
      "?E": 8135,
      "?F": 8136,
      "?G": 8137,
      "?H": 8138,
      "?I": 8139,
      "?J": 8140,
      "?K": 8141,
      "?L": 8142,
      "?M": 8143,
      "?N": 8144,
      "?O": 8145,
      "?P": 8146,
      "?Q": 8147,
      "?R": 8148,
      "?S": 8149,
      "?T": 8150,
      "?U": 8151,
      "?V": 8152,
      "?W": 8153,
      "?X": 8154,
      "?Y": 8155,
      "?Z": 8156,
      "?[": 8157,
      "?\\": 8158,
      "?]": 8159,
      "?^": 8160,
      "?_": 8161,
      "?`": 8162,
      "?a": 8163,
      "?b": 8164,
      "?c": 8165,
      "?d": 8166,
      "?e": 8167,
      "?f": 8168,
      "?g": 8169,
      "?h": 8170,
      "?i": 8171,
      "?j": 8172,
      "?k": 8173,
      "?l": 8174,
      "?m": 8175,
      "?n": 8176,
      "?o": 8177,
      "?p": 8178,
      "?q": 8179,
      "?r": 8180,
      "?s": 8181,
      "?t": 8182,
      "?u": 8183,
      "?v": 8184,
      "?w": 8185,
      "?x": 8186,
      "?y": 8187,
      "?z": 8188,
      "?{": 8189,
      "?|": 8190,
      "?}": 8191,
      "?~": 8192,
      "?Â¡": 8193,
      "?Â¢": 8194,
      "?Â£": 8195,
      "?Â¤": 8196,
      "?Â¥": 8197,
      "?Â¦": 8198,
      "?Â§": 8199,
      "?Â¨": 8200,
      "?Â©": 8201,
      "?Âª": 8202,
      "?Â«": 8203,
      "?Â¬": 8204,
      "?Â®": 8205,
      "?Â¯": 8206,
      "?Â°": 8207,
      "?Â±": 8208,
      "?Â²": 8209,
      "?Â³": 8210,
      "?Â´": 8211,
      "?Âµ": 8212,
      "?Â¶": 8213,
      "?Â·": 8214,
      "?Â¸": 8215,
      "?Â¹": 8216,
      "?Âº": 8217,
      "?Â»": 8218,
      "?Â¼": 8219,
      "?Â½": 8220,
      "?Â¾": 8221,
      "?Â¿": 8222,
      "?Ã¡": 8223,
      "?Ã¢": 8224,
      "?Ã£": 8225,
      "?Ã¤": 8226,
      "?Ã¥": 8227,
      "?Ã¦": 8228,
      "?Ã§": 8229,
      "?Ã¨": 8230,
      "?Ã©": 8231,
      "?Ãª": 8232,
      "?Ã«": 8233,
      "?Ã¬": 8234,
      "?Ã®": 8235,
      "?Ã¯": 8236,
      "?Ã°": 8237,
      "?Ã±": 8238,
      "?Ã²": 8239,
      "?Ã³": 8240,
      "?Ã´": 8241,
      "?Ãµ": 8242,
      "?Ã¶": 8243,
      "?Ã·": 8244,
      "?Ã¸": 8245,
      "?Ã¹": 8246,
      "?Ãº": 8247,
      "?Ã»": 8248,
      "?Ã¼": 8249,
      "?Ã½": 8250,
      "?Ã¾": 8251,
      "?Ã¿": 8252,
      "?ÃĢ": 8253,
      "?Ãģ": 8254,
      "?ÃĤ": 8255,
      "?Ãĥ": 8256,
      "?ÃĦ": 8257,
      "?Ãħ": 8258,
      "?ÃĨ": 8259,
      "?Ãĩ": 8260,
      "?ÃĪ": 8261,
      "?Ãī": 8262,
      "?ÃĬ": 8263,
      "?Ãĭ": 8264,
      "?ÃĮ": 8265,
      "?Ãį": 8266,
      "?Ãİ": 8267,
      "?Ãı": 8268,
      "?ÃĲ": 8269,
      "?Ãĳ": 8270,
      "?ÃĴ": 8271,
      "?Ãĵ": 8272,
      "?ÃĶ": 8273,
      "?Ãķ": 8274,
      "?Ãĸ": 8275,
      "?ÃĹ": 8276,
      "?Ãĺ": 8277,
      "?ÃĻ": 8278,
      "?Ãļ": 8279,
      "?ÃĽ": 8280,
      "?Ãľ": 8281,
      "?ÃĿ": 8282,
      "?Ãŀ": 8283,
      "?ÃŁ": 8284,
      "?Ãł": 8285,
      "?ÃŃ": 8286,
      "?Ä¡": 8287,
      "?Ä¢": 8288,
      "?Ä£": 8289,
      "?Ä¤": 8290,
      "?Ä¥": 8291,
      "?Ä¦": 8292,
      "?Ä§": 8293,
      "?Ä¨": 8294,
      "?Ä©": 8295,
      "?Äª": 8296,
      "?Ä«": 8297,
      "?Ä¬": 8298,
      "?Ä®": 8299,
      "?Ä¯": 8300,
      "?Ä°": 8301,
      "?Ä±": 8302,
      "?Ä²": 8303,
      "?Ä³": 8304,
      "?Ä´": 8305,
      "?Äµ": 8306,
      "?Ä¶": 8307,
      "?Ä·": 8308,
      "?Ä¸": 8309,
      "?Ä¹": 8310,
      "?Äº": 8311,
      "?Ä»": 8312,
      "?Ä¼": 8313,
      "?Ä½": 8314,
      "?Ä¾": 8315,
      "?Ä¿": 8316,
      "?ÄĢ": 8317,
      "?Äģ": 8318,
      "?ÄĤ": 8319,
      "?Äĥ": 8320,
      "?ÄĦ": 8321,
      "?Äħ": 8322,
      "?ÄĨ": 8323,
      "?Äĩ": 8324,
      "?ÄĪ": 8325,
      "?Äī": 8326,
      "?ÄĬ": 8327,
      "?Äĭ": 8328,
      "?ÄĮ": 8329,
      "?Äį": 8330,
      "?Äİ": 8331,
      "?Äı": 8332,
      "?ÄĲ": 8333,
      "?Äĳ": 8334,
      "?ÄĴ": 8335,
      "?Äĵ": 8336,
      "?ÄĶ": 8337,
      "?Äķ": 8338,
      "?Äĸ": 8339,
      "?ÄĹ": 8340,
      "?Äĺ": 8341,
      "?ÄĻ": 8342,
      "?Äļ": 8343,
      "?ÄĽ": 8344,
      "?Äľ": 8345,
      "?ÄĿ": 8346,
      "?Äŀ": 8347,
      "?ÄŁ": 8348,
      "?Äł": 8349,
      "?ÄŃ": 8350,
      "?ÅĢ": 8351,
      "?Åģ": 8352,
      "?ÅĤ": 8353,
      "?Åĥ": 8354,
      "@!": 8355,
      "@\"": 8356,
      "@#": 8357,
      "@$": 8358,
      "@%": 8359,
      "@&": 8360,
      "@'": 8361,
      "@(": 8362,
      "@)": 8363,
      "@*": 8364,
      "@+": 8365,
      "@,": 8366,
      "@-": 8367,
      "@.": 8368,
      "@/": 8369,
      "@0": 8370,
      "@1": 8371,
      "@2": 8372,
      "@3": 8373,
      "@4": 8374,
      "@5": 8375,
      "@6": 8376,
      "@7": 8377,
      "@8": 8378,
      "@9": 8379,
      "@:": 8380,
      "@;": 8381,
      "@<": 8382,
      "@=": 8383,
      "@>": 8384,
      "@?": 8385,
      "@@": 8386,
      "@A": 8387,
      "@B": 8388,
      "@C": 8389,
      "@D": 8390,
      "@E": 8391,
      "@F": 8392,
      "@G": 8393,
      "@H": 8394,
      "@I": 8395,
      "@J": 8396,
      "@K": 8397,
      "@L": 8398,
      "@M": 8399,
      "@N": 8400,
      "@O": 8401,
      "@P": 8402,
      "@Q": 8403,
      "@R": 8404,
      "@S": 8405,
      "@T": 8406,
      "@U": 8407,
      "@V": 8408,
      "@W": 8409,
      "@X": 8410,
      "@Y": 8411,
      "@Z": 8412,
      "@[": 8413,
      "@\\": 8414,
      "@]": 8415,
      "@^": 8416,
      "@_": 8417,
      "@`": 8418,
      "@a": 8419,
      "@b": 8420,
      "@c": 8421,
      "@d": 8422,
      "@e": 8423,
      "@f": 8424,
      "@g": 8425,
      "@h": 8426,
      "@i": 8427,
      "@j": 8428,
      "@k": 8429,
      "@l": 8430,
      "@m": 8431,
      "@n": 8432,
      "@o": 8433,
      "@p": 8434,
      "@q": 8435,
      "@r": 8436,
      "@s": 8437,
      "@t": 8438,
      "@u": 8439,
      "@v": 8440,
      "@w": 8441,
      "@x": 8442,
      "@y": 8443,
      "@z": 8444,
      "@{": 8445,
      "@|": 8446,
      "@}": 8447,
      "@~": 8448,
      "@Â¡": 8449,
      "@Â¢": 8450,
      "@Â£": 8451,
      "@Â¤": 8452,
      "@Â¥": 8453,
      "@Â¦": 8454,
      "@Â§": 8455,
      "@Â¨": 8456,
      "@Â©": 8457,
      "@Âª": 8458,
      "@Â«": 8459,
      "@Â¬": 8460,
      "@Â®": 8461,
      "@Â¯": 8462,
      "@Â°": 8463,
      "@Â±": 8464,
      "@Â²": 8465,
      "@Â³": 8466,
      "@Â´": 8467,
      "@Âµ": 8468,
      "@Â¶": 8469,
      "@Â·": 8470,
      "@Â¸": 8471,
      "@Â¹": 8472,
      "@Âº": 8473,
      "@Â»": 8474,
      "@Â¼": 8475,
      "@Â½": 8476,
      "@Â¾": 8477,
      "@Â¿": 8478,
      "@Ã¡": 8479,
      "@Ã¢": 8480,
      "@Ã£": 8481,
      "@Ã¤": 8482,
      "@Ã¥": 8483,
      "@Ã¦": 8484,
      "@Ã§": 8485,
      "@Ã¨": 8486,
      "@Ã©": 8487,
      "@Ãª": 8488,
      "@Ã«": 8489,
      "@Ã¬": 8490,
      "@Ã®": 8491,
      "@Ã¯": 8492,
      "@Ã°": 8493,
      "@Ã±": 8494,
      "@Ã²": 8495,
      "@Ã³": 8496,
      "@Ã´": 8497,
      "@Ãµ": 8498,
      "@Ã¶": 8499,
      "@Ã·": 8500,
      "@Ã¸": 8501,
      "@Ã¹": 8502,
      "@Ãº": 8503,
      "@Ã»": 8504,
      "@Ã¼": 8505,
      "@Ã½": 8506,
      "@Ã¾": 8507,
      "@Ã¿": 8508,
      "@ÃĢ": 8509,
      "@Ãģ": 8510,
      "@ÃĤ": 8511,
      "@Ãĥ": 8512,
      "@ÃĦ": 8513,
      "@Ãħ": 8514,
      "@ÃĨ": 8515,
      "@Ãĩ": 8516,
      "@ÃĪ": 8517,
      "@Ãī": 8518,
      "@ÃĬ": 8519,
      "@Ãĭ": 8520,
      "@ÃĮ": 8521,
      "@Ãį": 8522,
      "@Ãİ": 8523,
      "@Ãı": 8524,
      "@ÃĲ": 8525,
      "@Ãĳ": 8526,
      "@ÃĴ": 8527,
      "@Ãĵ": 8528,
      "@ÃĶ": 8529,
      "@Ãķ": 8530,
      "@Ãĸ": 8531,
      "@ÃĹ": 8532,
      "@Ãĺ": 8533,
      "@ÃĻ": 8534,
      "@Ãļ": 8535,
      "@ÃĽ": 8536,
      "@Ãľ": 8537,
      "@ÃĿ": 8538,
      "@Ãŀ": 8539,
      "@ÃŁ": 8540,
      "@Ãł": 8541,
      "@ÃŃ": 8542,
      "@Ä¡": 8543,
      "@Ä¢": 8544,
      "@Ä£": 8545,
      "@Ä¤": 8546,
      "@Ä¥": 8547,
      "@Ä¦": 8548,
      "@Ä§": 8549,
      "@Ä¨": 8550,
      "@Ä©": 8551,
      "@Äª": 8552,
      "@Ä«": 8553,
      "@Ä¬": 8554,
      "@Ä®": 8555,
      "@Ä¯": 8556,
      "@Ä°": 8557,
      "@Ä±": 8558,
      "@Ä²": 8559,
      "@Ä³": 8560,
      "@Ä´": 8561,
      "@Äµ": 8562,
      "@Ä¶": 8563,
      "@Ä·": 8564,
      "@Ä¸": 8565,
      "@Ä¹": 8566,
      "@Äº": 8567,
      "@Ä»": 8568,
      "@Ä¼": 8569,
      "@Ä½": 8570,
      "@Ä¾": 8571,
      "@Ä¿": 8572,
      "@ÄĢ": 8573,
      "@Äģ": 8574,
      "@ÄĤ": 8575,
      "@Äĥ": 8576,
      "@ÄĦ": 8577,
      "@Äħ": 8578,
      "@ÄĨ": 8579,
      "@Äĩ": 8580,
      "@ÄĪ": 8581,
      "@Äī": 8582,
      "@ÄĬ": 8583,
      "@Äĭ": 8584,
      "@ÄĮ": 8585,
      "@Äį": 8586,
      "@Äİ": 8587,
      "@Äı": 8588,
      "@ÄĲ": 8589,
      "@Äĳ": 8590,
      "@ÄĴ": 8591,
      "@Äĵ": 8592,
      "@ÄĶ": 8593,
      "@Äķ": 8594,
      "@Äĸ": 8595,
      "@ÄĹ": 8596,
      "@Äĺ": 8597,
      "@ÄĻ": 8598,
      "@Äļ": 8599,
      "@ÄĽ": 8600,
      "@Äľ": 8601,
      "@ÄĿ": 8602,
      "@Äŀ": 8603,
      "@ÄŁ": 8604,
      "@Äł": 8605,
      "@ÄŃ": 8606,
      "@ÅĢ": 8607,
      "@Åģ": 8608,
      "@ÅĤ": 8609,
      "@Åĥ": 8610,
      "A!": 8611,
      "A\"": 8612,
      "A#": 8613,
      "A$": 8614,
      "A%": 8615,
      "A&": 8616,
      "A'": 8617,
      "A(": 8618,
      "A)": 8619,
      "A*": 8620,
      "A+": 8621,
      "A,": 8622,
      "A-": 8623,
      "A.": 8624,
      "A/": 8625,
      "A0": 8626,
      "A1": 8627,
      "A2": 8628,
      "A3": 8629,
      "A4": 8630,
      "A5": 8631,
      "A6": 8632,
      "A7": 8633,
      "A8": 8634,
      "A9": 8635,
      "A:": 8636,
      "A;": 8637,
      "A<": 8638,
      "A=": 8639,
      "A>": 8640,
      "A?": 8641,
      "A@": 8642,
      "AA": 8643,
      "AB": 8644,
      "AC": 8645,
      "AD": 8646,
      "AE": 8647,
      "AF": 8648,
      "AG": 8649,
      "AH": 8650,
      "AI": 8651,
      "AJ": 8652,
      "AK": 8653,
      "AL": 8654,
      "AM": 8655,
      "AN": 8656,
      "AO": 8657,
      "AP": 8658,
      "AQ": 8659,
      "AR": 8660,
      "AS": 8661,
      "AT": 8662,
      "AU": 8663,
      "AV": 8664,
      "AW": 8665,
      "AX": 8666,
      "AY": 8667,
      "AZ": 8668,
      "A[": 8669,
      "A\\": 8670,
      "A]": 8671,
      "A^": 8672,
      "A_": 8673,
      "A`": 8674,
      "Aa": 8675,
      "Ab": 8676,
      "Ac": 8677,
      "Ad": 8678,
      "Ae": 8679,
      "Af": 8680,
      "Ag": 8681,
      "Ah": 8682,
      "Ai": 8683,
      "Aj": 8684,
      "Ak": 8685,
      "Al": 8686,
      "Am": 8687,
      "An": 8688,
      "Ao": 8689,
      "Ap": 8690,
      "Aq": 8691,
      "Ar": 8692,
      "As": 8693,
      "At": 8694,
      "Au": 8695,
      "Av": 8696,
      "Aw": 8697,
      "Ax": 8698,
      "Ay": 8699,
      "Az": 8700,
      "A{": 8701,
      "A|": 8702,
      "A}": 8703,
      "A~": 8704,
      "AÂ¡": 8705,
      "AÂ¢": 8706,
      "AÂ£": 8707,
      "AÂ¤": 8708,
      "AÂ¥": 8709,
      "AÂ¦": 8710,
      "AÂ§": 8711,
      "AÂ¨": 8712,
      "AÂ©": 8713,
      "AÂª": 8714,
      "AÂ«": 8715,
      "AÂ¬": 8716,
      "AÂ®": 8717,
      "AÂ¯": 8718,
      "AÂ°": 8719,
      "AÂ±": 8720,
      "AÂ²": 8721,
      "AÂ³": 8722,
      "AÂ´": 8723,
      "AÂµ": 8724,
      "AÂ¶": 8725,
      "AÂ·": 8726,
      "AÂ¸": 8727,
      "AÂ¹": 8728,
      "AÂº": 8729,
      "AÂ»": 8730,
      "AÂ¼": 8731,
      "AÂ½": 8732,
      "AÂ¾": 8733,
      "AÂ¿": 8734,
      "AÃ¡": 8735,
      "AÃ¢": 8736,
      "AÃ£": 8737,
      "AÃ¤": 8738,
      "AÃ¥": 8739,
      "AÃ¦": 8740,
      "AÃ§": 8741,
      "AÃ¨": 8742,
      "AÃ©": 8743,
      "AÃª": 8744,
      "AÃ«": 8745,
      "AÃ¬": 8746,
      "AÃ®": 8747,
      "AÃ¯": 8748,
      "AÃ°": 8749,
      "AÃ±": 8750,
      "AÃ²": 8751,
      "AÃ³": 8752,
      "AÃ´": 8753,
      "AÃµ": 8754,
      "AÃ¶": 8755,
      "AÃ·": 8756,
      "AÃ¸": 8757,
      "AÃ¹": 8758,
      "AÃº": 8759,
      "AÃ»": 8760,
      "AÃ¼": 8761,
      "AÃ½": 8762,
      "AÃ¾": 8763,
      "AÃ¿": 8764,
      "AÃĢ": 8765,
      "AÃģ": 8766,
      "AÃĤ": 8767,
      "AÃĥ": 8768,
      "AÃĦ": 8769,
      "AÃħ": 8770,
      "AÃĨ": 8771,
      "AÃĩ": 8772,
      "AÃĪ": 8773,
      "AÃī": 8774,
      "AÃĬ": 8775,
      "AÃĭ": 8776,
      "AÃĮ": 8777,
      "AÃį": 8778,
      "AÃİ": 8779,
      "AÃı": 8780,
      "AÃĲ": 8781,
      "AÃĳ": 8782,
      "AÃĴ": 8783,
      "AÃĵ": 8784,
      "AÃĶ": 8785,
      "AÃķ": 8786,
      "AÃĸ": 8787,
      "AÃĹ": 8788,
      "AÃĺ": 8789,
      "AÃĻ": 8790,
      "AÃļ": 8791,
      "AÃĽ": 8792,
      "AÃľ": 8793,
      "AÃĿ": 8794,
      "AÃŀ": 8795,
      "AÃŁ": 8796,
      "AÃł": 8797,
      "AÃŃ": 8798,
      "AÄ¡": 8799,
      "AÄ¢": 8800,
      "AÄ£": 8801,
      "AÄ¤": 8802,
      "AÄ¥": 8803,
      "AÄ¦": 8804,
      "AÄ§": 8805,
      "AÄ¨": 8806,
      "AÄ©": 8807,
      "AÄª": 8808,
      "AÄ«": 8809,
      "AÄ¬": 8810,
      "AÄ®": 8811,
      "AÄ¯": 8812,
      "AÄ°": 8813,
      "AÄ±": 8814,
      "AÄ²": 8815,
      "AÄ³": 8816,
      "AÄ´": 8817,
      "AÄµ": 8818,
      "AÄ¶": 8819,
      "AÄ·": 8820,
      "AÄ¸": 8821,
      "AÄ¹": 8822,
      "AÄº": 8823,
      "AÄ»": 8824,
      "AÄ¼": 8825,
      "AÄ½": 8826,
      "AÄ¾": 8827,
      "AÄ¿": 8828,
      "AÄĢ": 8829,
      "AÄģ": 8830,
      "AÄĤ": 8831,
      "AÄĥ": 8832,
      "AÄĦ": 8833,
      "AÄħ": 8834,
      "AÄĨ": 8835,
      "AÄĩ": 8836,
      "AÄĪ": 8837,
      "AÄī": 8838,
      "AÄĬ": 8839,
      "AÄĭ": 8840,
      "AÄĮ": 8841,
      "AÄį": 8842,
      "AÄİ": 8843,
      "AÄı": 8844,
      "AÄĲ": 8845,
      "AÄĳ": 8846,
      "AÄĴ": 8847,
      "AÄĵ": 8848,
      "AÄĶ": 8849,
      "AÄķ": 8850,
      "AÄĸ": 8851,
      "AÄĹ": 8852,
      "AÄĺ": 8853,
      "AÄĻ": 8854,
      "AÄļ": 8855,
      "AÄĽ": 8856,
      "AÄľ": 8857,
      "AÄĿ": 8858,
      "AÄŀ": 8859,
      "AÄŁ": 8860,
      "AÄł": 8861,
      "AÄŃ": 8862,
      "AÅĢ": 8863,
      "AÅģ": 8864,
      "AÅĤ": 8865,
      "AÅĥ": 8866,
      "B!": 8867,
      "B\"": 8868,
      "B#": 8869,
      "B$": 8870,
      "B%": 8871,
      "B&": 8872,
      "B'": 8873,
      "B(": 8874,
      "B)": 8875,
      "B*": 8876,
      "B+": 8877,
      "B,": 8878,
      "B-": 8879,
      "B.": 8880,
      "B/": 8881,
      "B0": 8882,
      "B1": 8883,
      "B2": 8884,
      "B3": 8885,
      "B4": 8886,
      "B5": 8887,
      "B6": 8888,
      "B7": 8889,
      "B8": 8890,
      "B9": 8891,
      "B:": 8892,
      "B;": 8893,
      "B<": 8894,
      "B=": 8895,
      "B>": 8896,
      "B?": 8897,
      "B@": 8898,
      "BA": 8899,
      "BB": 8900,
      "BC": 8901,
      "BD": 8902,
      "BE": 8903,
      "BF": 8904,
      "BG": 8905,
      "BH": 8906,
      "BI": 8907,
      "BJ": 8908,
      "BK": 8909,
      "BL": 8910,
      "BM": 8911,
      "BN": 8912,
      "BO": 8913,
      "BP": 8914,
      "BQ": 8915,
      "BR": 8916,
      "BS": 8917,
      "BT": 8918,
      "BU": 8919,
      "BV": 8920,
      "BW": 8921,
      "BX": 8922,
      "BY": 8923,
      "BZ": 8924,
      "B[": 8925,
      "B\\": 8926,
      "B]": 8927,
      "B^": 8928,
      "B_": 8929,
      "B`": 8930,
      "Ba": 8931,
      "Bb": 8932,
      "Bc": 8933,
      "Bd": 8934,
      "Be": 8935,
      "Bf": 8936,
      "Bg": 8937,
      "Bh": 8938,
      "Bi": 8939,
      "Bj": 8940,
      "Bk": 8941,
      "Bl": 8942,
      "Bm": 8943,
      "Bn": 8944,
      "Bo": 8945,
      "Bp": 8946,
      "Bq": 8947,
      "Br": 8948,
      "Bs": 8949,
      "Bt": 8950,
      "Bu": 8951,
      "Bv": 8952,
      "Bw": 8953,
      "Bx": 8954,
      "By": 8955,
      "Bz": 8956,
      "B{": 8957,
      "B|": 8958,
      "B}": 8959,
      "B~": 8960,
      "BÂ¡": 8961,
      "BÂ¢": 8962,
      "BÂ£": 8963,
      "BÂ¤": 8964,
      "BÂ¥": 8965,
      "BÂ¦": 8966,
      "BÂ§": 8967,
      "BÂ¨": 8968,
      "BÂ©": 8969,
      "BÂª": 8970,
      "BÂ«": 8971,
      "BÂ¬": 8972,
      "BÂ®": 8973,
      "BÂ¯": 8974,
      "BÂ°": 8975,
      "BÂ±": 8976,
      "BÂ²": 8977,
      "BÂ³": 8978,
      "BÂ´": 8979,
      "BÂµ": 8980,
      "BÂ¶": 8981,
      "BÂ·": 8982,
      "BÂ¸": 8983,
      "BÂ¹": 8984,
      "BÂº": 8985,
      "BÂ»": 8986,
      "BÂ¼": 8987,
      "BÂ½": 8988,
      "BÂ¾": 8989,
      "BÂ¿": 8990,
      "BÃ¡": 8991,
      "BÃ¢": 8992,
      "BÃ£": 8993,
      "BÃ¤": 8994,
      "BÃ¥": 8995,
      "BÃ¦": 8996,
      "BÃ§": 8997,
      "BÃ¨": 8998,
      "BÃ©": 8999,
      "BÃª": 9000,
      "BÃ«": 9001,
      "BÃ¬": 9002,
      "BÃ®": 9003,
      "BÃ¯": 9004,
      "BÃ°": 9005,
      "BÃ±": 9006,
      "BÃ²": 9007,
      "BÃ³": 9008,
      "BÃ´": 9009,
      "BÃµ": 9010,
      "BÃ¶": 9011,
      "BÃ·": 9012,
      "BÃ¸": 9013,
      "BÃ¹": 9014,
      "BÃº": 9015,
      "BÃ»": 9016,
      "BÃ¼": 9017,
      "BÃ½": 9018,
      "BÃ¾": 9019,
      "BÃ¿": 9020,
      "BÃĢ": 9021,
      "BÃģ": 9022,
      "BÃĤ": 9023,
      "BÃĥ": 9024,
      "BÃĦ": 9025,
      "BÃħ": 9026,
      "BÃĨ": 9027,
      "BÃĩ": 9028,
      "BÃĪ": 9029,
      "BÃī": 9030,
      "BÃĬ": 9031,
      "BÃĭ": 9032,
      "BÃĮ": 9033,
      "BÃį": 9034,
      "BÃİ": 9035,
      "BÃı": 9036,
      "BÃĲ": 9037,
      "BÃĳ": 9038,
      "BÃĴ": 9039,
      "BÃĵ": 9040,
      "BÃĶ": 9041,
      "BÃķ": 9042,
      "BÃĸ": 9043,
      "BÃĹ": 9044,
      "BÃĺ": 9045,
      "BÃĻ": 9046,
      "BÃļ": 9047,
      "BÃĽ": 9048,
      "BÃľ": 9049,
      "BÃĿ": 9050,
      "BÃŀ": 9051,
      "BÃŁ": 9052,
      "BÃł": 9053,
      "BÃŃ": 9054,
      "BÄ¡": 9055,
      "BÄ¢": 9056,
      "BÄ£": 9057,
      "BÄ¤": 9058,
      "BÄ¥": 9059,
      "BÄ¦": 9060,
      "BÄ§": 9061,
      "BÄ¨": 9062,
      "BÄ©": 9063,
      "BÄª": 9064,
      "BÄ«": 9065,
      "BÄ¬": 9066,
      "BÄ®": 9067,
      "BÄ¯": 9068,
      "BÄ°": 9069,
      "BÄ±": 9070,
      "BÄ²": 9071,
      "BÄ³": 9072,
      "BÄ´": 9073,
      "BÄµ": 9074,
      "BÄ¶": 9075,
      "BÄ·": 9076,
      "BÄ¸": 9077,
      "BÄ¹": 9078,
      "BÄº": 9079,
      "BÄ»": 9080,
      "BÄ¼": 9081,
      "BÄ½": 9082,
      "BÄ¾": 9083,
      "BÄ¿": 9084,
      "BÄĢ": 9085,
      "BÄģ": 9086,
      "BÄĤ": 9087,
      "BÄĥ": 9088,
      "BÄĦ": 9089,
      "BÄħ": 9090,
      "BÄĨ": 9091,
      "BÄĩ": 9092,
      "BÄĪ": 9093,
      "BÄī": 9094,
      "BÄĬ": 9095,
      "BÄĭ": 9096,
      "BÄĮ": 9097,
      "BÄį": 9098,
      "BÄİ": 9099,
      "BÄı": 9100,
      "BÄĲ": 9101,
      "BÄĳ": 9102,
      "BÄĴ": 9103,
      "BÄĵ": 9104,
      "BÄĶ": 9105,
      "BÄķ": 9106,
      "BÄĸ": 9107,
      "BÄĹ": 9108,
      "BÄĺ": 9109,
      "BÄĻ": 9110,
      "BÄļ": 9111,
      "BÄĽ": 9112,
      "BÄľ": 9113,
      "BÄĿ": 9114,
      "BÄŀ": 9115,
      "BÄŁ": 9116,
      "BÄł": 9117,
      "BÄŃ": 9118,
      "BÅĢ": 9119,
      "BÅģ": 9120,
      "BÅĤ": 9121,
      "BÅĥ": 9122,
      "C!": 9123,
      "C\"": 9124,
      "C#": 9125,
      "C$": 9126,
      "C%": 9127,
      "C&": 9128,
      "C'": 9129,
      "C(": 9130,
      "C)": 9131,
      "C*": 9132,
      "C+": 9133,
      "C,": 9134,
      "C-": 9135,
      "C.": 9136,
      "C/": 9137,
      "C0": 9138,
      "C1": 9139,
      "C2": 9140,
      "C3": 9141,
      "C4": 9142,
      "C5": 9143,
      "C6": 9144,
      "C7": 9145,
      "C8": 9146,
      "C9": 9147,
      "C:": 9148,
      "C;": 9149,
      "C<": 9150,
      "C=": 9151,
      "C>": 9152,
      "C?": 9153,
      "C@": 9154,
      "CA": 9155,
      "CB": 9156,
      "CC": 9157,
      "CD": 9158,
      "CE": 9159,
      "CF": 9160,
      "CG": 9161,
      "CH": 9162,
      "CI": 9163,
      "CJ": 9164,
      "CK": 9165,
      "CL": 9166,
      "CM": 9167,
      "CN": 9168,
      "CO": 9169,
      "CP": 9170,
      "CQ": 9171,
      "CR": 9172,
      "CS": 9173,
      "CT": 9174,
      "CU": 9175,
      "CV": 9176,
      "CW": 9177,
      "CX": 9178,
      "CY": 9179,
      "CZ": 9180,
      "C[": 9181,
      "C\\": 9182,
      "C]": 9183,
      "C^": 9184,
      "C_": 9185,
      "C`": 9186,
      "Ca": 9187,
      "Cb": 9188,
      "Cc": 9189,
      "Cd": 9190,
      "Ce": 9191,
      "Cf": 9192,
      "Cg": 9193,
      "Ch": 9194,
      "Ci": 9195,
      "Cj": 9196,
      "Ck": 9197,
      "Cl": 9198,
      "Cm": 9199,
      "Cn": 9200,
      "Co": 9201,
      "Cp": 9202,
      "Cq": 9203,
      "Cr": 9204,
      "Cs": 9205,
      "Ct": 9206,
      "Cu": 9207,
      "Cv": 9208,
      "Cw": 9209,
      "Cx": 9210,
      "Cy": 9211,
      "Cz": 9212,
      "C{": 9213,
      "C|": 9214,
      "C}": 9215,
      "C~": 9216,
      "CÂ¡": 9217,
      "CÂ¢": 9218,
      "CÂ£": 9219,
      "CÂ¤": 9220,
      "CÂ¥": 9221,
      "CÂ¦": 9222,
      "CÂ§": 9223,
      "CÂ¨": 9224,
      "CÂ©": 9225,
      "CÂª": 9226,
      "CÂ«": 9227,
      "CÂ¬": 9228,
      "CÂ®": 9229,
      "CÂ¯": 9230,
      "CÂ°": 9231,
      "CÂ±": 9232,
      "CÂ²": 9233,
      "CÂ³": 9234,
      "CÂ´": 9235,
      "CÂµ": 9236,
      "CÂ¶": 9237,
      "CÂ·": 9238,
      "CÂ¸": 9239,
      "CÂ¹": 9240,
      "CÂº": 9241,
      "CÂ»": 9242,
      "CÂ¼": 9243,
      "CÂ½": 9244,
      "CÂ¾": 9245,
      "CÂ¿": 9246,
      "CÃ¡": 9247,
      "CÃ¢": 9248,
      "CÃ£": 9249,
      "CÃ¤": 9250,
      "CÃ¥": 9251,
      "CÃ¦": 9252,
      "CÃ§": 9253,
      "CÃ¨": 9254,
      "CÃ©": 9255,
      "CÃª": 9256,
      "CÃ«": 9257,
      "CÃ¬": 9258,
      "CÃ®": 9259,
      "CÃ¯": 9260,
      "CÃ°": 9261,
      "CÃ±": 9262,
      "CÃ²": 9263,
      "CÃ³": 9264,
      "CÃ´": 9265,
      "CÃµ": 9266,
      "CÃ¶": 9267,
      "CÃ·": 9268,
      "CÃ¸": 9269,
      "CÃ¹": 9270,
      "CÃº": 9271,
      "CÃ»": 9272,
      "CÃ¼": 9273,
      "CÃ½": 9274,
      "CÃ¾": 9275,
      "CÃ¿": 9276,
      "CÃĢ": 9277,
      "CÃģ": 9278,
      "CÃĤ": 9279,
      "CÃĥ": 9280,
      "CÃĦ": 9281,
      "CÃħ": 9282,
      "CÃĨ": 9283,
      "CÃĩ": 9284,
      "CÃĪ": 9285,
      "CÃī": 9286,
      "CÃĬ": 9287,
      "CÃĭ": 9288,
      "CÃĮ": 9289,
      "CÃį": 9290,
      "CÃİ": 9291,
      "CÃı": 9292,
      "CÃĲ": 9293,
      "CÃĳ": 9294,
      "CÃĴ": 9295,
      "CÃĵ": 9296,
      "CÃĶ": 9297,
      "CÃķ": 9298,
      "CÃĸ": 9299,
      "CÃĹ": 9300,
      "CÃĺ": 9301,
      "CÃĻ": 9302,
      "CÃļ": 9303,
      "CÃĽ": 9304,
      "CÃľ": 9305,
      "CÃĿ": 9306,
      "CÃŀ": 9307,
      "CÃŁ": 9308,
      "CÃł": 9309,
      "CÃŃ": 9310,
      "CÄ¡": 9311,
      "CÄ¢": 9312,
      "CÄ£": 9313,
      "CÄ¤": 9314,
      "CÄ¥": 9315,
      "CÄ¦": 9316,
      "CÄ§": 9317,
      "CÄ¨": 9318,
      "CÄ©": 9319,
      "CÄª": 9320,
      "CÄ«": 9321,
      "CÄ¬": 9322,
      "CÄ®": 9323,
      "CÄ¯": 9324,
      "CÄ°": 9325,
      "CÄ±": 9326,
      "CÄ²": 9327,
      "CÄ³": 9328,
      "CÄ´": 9329,
      "CÄµ": 9330,
      "CÄ¶": 9331,
      "CÄ·": 9332,
      "CÄ¸": 9333,
      "CÄ¹": 9334,
      "CÄº": 9335,
      "CÄ»": 9336,
      "CÄ¼": 9337,
      "CÄ½": 9338,
      "CÄ¾": 9339,
      "CÄ¿": 9340,
      "CÄĢ": 9341,
      "CÄģ": 9342,
      "CÄĤ": 9343,
      "CÄĥ": 9344,
      "CÄĦ": 9345,
      "CÄħ": 9346,
      "CÄĨ": 9347,
      "CÄĩ": 9348,
      "CÄĪ": 9349,
      "CÄī": 9350,
      "CÄĬ": 9351,
      "CÄĭ": 9352,
      "CÄĮ": 9353,
      "CÄį": 9354,
      "CÄİ": 9355,
      "CÄı": 9356,
      "CÄĲ": 9357,
      "CÄĳ": 9358,
      "CÄĴ": 9359,
      "CÄĵ": 9360,
      "CÄĶ": 9361,
      "CÄķ": 9362,
      "CÄĸ": 9363,
      "CÄĹ": 9364,
      "CÄĺ": 9365,
      "CÄĻ": 9366,
      "CÄļ": 9367,
      "CÄĽ": 9368,
      "CÄľ": 9369,
      "CÄĿ": 9370,
      "CÄŀ": 9371,
      "CÄŁ": 9372,
      "CÄł": 9373,
      "CÄŃ": 9374,
      "CÅĢ": 9375,
      "CÅģ": 9376,
      "CÅĤ": 9377,
      "CÅĥ": 9378,
      "D!": 9379,
      "D\"": 9380,
      "D#": 9381,
      "D$": 9382,
      "D%": 9383,
      "D&": 9384,
      "D'": 9385,
      "D(": 9386,
      "D)": 9387,
      "D*": 9388,
      "D+": 9389,
      "D,": 9390,
      "D-": 9391,
      "D.": 9392,
      "D/": 9393,
      "D0": 9394,
      "D1": 9395,
      "D2": 9396,
      "D3": 9397,
      "D4": 9398,
      "D5": 9399,
      "D6": 9400,
      "D7": 9401,
      "D8": 9402,
      "D9": 9403,
      "D:": 9404,
      "D;": 9405,
      "D<": 9406,
      "D=": 9407,
      "D>": 9408,
      "D?": 9409,
      "D@": 9410,
      "DA": 9411,
      "DB": 9412,
      "DC": 9413,
      "DD": 9414,
      "DE": 9415,
      "DF": 9416,
      "DG": 9417,
      "DH": 9418,
      "DI": 9419,
      "DJ": 9420,
      "DK": 9421,
      "DL": 9422,
      "DM": 9423,
      "DN": 9424,
      "DO": 9425,
      "DP": 9426,
      "DQ": 9427,
      "DR": 9428,
      "DS": 9429,
      "DT": 9430,
      "DU": 9431,
      "DV": 9432,
      "DW": 9433,
      "DX": 9434,
      "DY": 9435,
      "DZ": 9436,
      "D[": 9437,
      "D\\": 9438,
      "D]": 9439,
      "D^": 9440,
      "D_": 9441,
      "D`": 9442,
      "Da": 9443,
      "Db": 9444,
      "Dc": 9445,
      "Dd": 9446,
      "De": 9447,
      "Df": 9448,
      "Dg": 9449,
      "Dh": 9450,
      "Di": 9451,
      "Dj": 9452,
      "Dk": 9453,
      "Dl": 9454,
      "Dm": 9455,
      "Dn": 9456,
      "Do": 9457,
      "Dp": 9458,
      "Dq": 9459,
      "Dr": 9460,
      "Ds": 9461,
      "Dt": 9462,
      "Du": 9463,
      "Dv": 9464,
      "Dw": 9465,
      "Dx": 9466,
      "Dy": 9467,
      "Dz": 9468,
      "D{": 9469,
      "D|": 9470,
      "D}": 9471,
      "D~": 9472,
      "DÂ¡": 9473,
      "DÂ¢": 9474,
      "DÂ£": 9475,
      "DÂ¤": 9476,
      "DÂ¥": 9477,
      "DÂ¦": 9478,
      "DÂ§": 9479,
      "DÂ¨": 9480,
      "DÂ©": 9481,
      "DÂª": 9482,
      "DÂ«": 9483,
      "DÂ¬": 9484,
      "DÂ®": 9485,
      "DÂ¯": 9486,
      "DÂ°": 9487,
      "DÂ±": 9488,
      "DÂ²": 9489,
      "DÂ³": 9490,
      "DÂ´": 9491,
      "DÂµ": 9492,
      "DÂ¶": 9493,
      "DÂ·": 9494,
      "DÂ¸": 9495,
      "DÂ¹": 9496,
      "DÂº": 9497,
      "DÂ»": 9498,
      "DÂ¼": 9499,
      "DÂ½": 9500,
      "DÂ¾": 9501,
      "DÂ¿": 9502,
      "DÃ¡": 9503,
      "DÃ¢": 9504,
      "DÃ£": 9505,
      "DÃ¤": 9506,
      "DÃ¥": 9507,
      "DÃ¦": 9508,
      "DÃ§": 9509,
      "DÃ¨": 9510,
      "DÃ©": 9511,
      "DÃª": 9512,
      "DÃ«": 9513,
      "DÃ¬": 9514,
      "DÃ®": 9515,
      "DÃ¯": 9516,
      "DÃ°": 9517,
      "DÃ±": 9518,
      "DÃ²": 9519,
      "DÃ³": 9520,
      "DÃ´": 9521,
      "DÃµ": 9522,
      "DÃ¶": 9523,
      "DÃ·": 9524,
      "DÃ¸": 9525,
      "DÃ¹": 9526,
      "DÃº": 9527,
      "DÃ»": 9528,
      "DÃ¼": 9529,
      "DÃ½": 9530,
      "DÃ¾": 9531,
      "DÃ¿": 9532,
      "DÃĢ": 9533,
      "DÃģ": 9534,
      "DÃĤ": 9535,
      "DÃĥ": 9536,
      "DÃĦ": 9537,
      "DÃħ": 9538,
      "DÃĨ": 9539,
      "DÃĩ": 9540,
      "DÃĪ": 9541,
      "DÃī": 9542,
      "DÃĬ": 9543,
      "DÃĭ": 9544,
      "DÃĮ": 9545,
      "DÃį": 9546,
      "DÃİ": 9547,
      "DÃı": 9548,
      "DÃĲ": 9549,
      "DÃĳ": 9550,
      "DÃĴ": 9551,
      "DÃĵ": 9552,
      "DÃĶ": 9553,
      "DÃķ": 9554,
      "DÃĸ": 9555,
      "DÃĹ": 9556,
      "DÃĺ": 9557,
      "DÃĻ": 9558,
      "DÃļ": 9559,
      "DÃĽ": 9560,
      "DÃľ": 9561,
      "DÃĿ": 9562,
      "DÃŀ": 9563,
      "DÃŁ": 9564,
      "DÃł": 9565,
      "DÃŃ": 9566,
      "DÄ¡": 9567,
      "DÄ¢": 9568,
      "DÄ£": 9569,
      "DÄ¤": 9570,
      "DÄ¥": 9571,
      "DÄ¦": 9572,
      "DÄ§": 9573,
      "DÄ¨": 9574,
      "DÄ©": 9575,
      "DÄª": 9576,
      "DÄ«": 9577,
      "DÄ¬": 9578,
      "DÄ®": 9579,
      "DÄ¯": 9580,
      "DÄ°": 9581,
      "DÄ±": 9582,
      "DÄ²": 9583,
      "DÄ³": 9584,
      "DÄ´": 9585,
      "DÄµ": 9586,
      "DÄ¶": 9587,
      "DÄ·": 9588,
      "DÄ¸": 9589,
      "DÄ¹": 9590,
      "DÄº": 9591,
      "DÄ»": 9592,
      "DÄ¼": 9593,
      "DÄ½": 9594,
      "DÄ¾": 9595,
      "DÄ¿": 9596,
      "DÄĢ": 9597,
      "DÄģ": 9598,
      "DÄĤ": 9599,
      "DÄĥ": 9600,
      "DÄĦ": 9601,
      "DÄħ": 9602,
      "DÄĨ": 9603,
      "DÄĩ": 9604,
      "DÄĪ": 9605,
      "DÄī": 9606,
      "DÄĬ": 9607,
      "DÄĭ": 9608,
      "DÄĮ": 9609,
      "DÄį": 9610,
      "DÄİ": 9611,
      "DÄı": 9612,
      "DÄĲ": 9613,
      "DÄĳ": 9614,
      "DÄĴ": 9615,
      "DÄĵ": 9616,
      "DÄĶ": 9617,
      "DÄķ": 9618,
      "DÄĸ": 9619,
      "DÄĹ": 9620,
      "DÄĺ": 9621,
      "DÄĻ": 9622,
      "DÄļ": 9623,
      "DÄĽ": 9624,
      "DÄľ": 9625,
      "DÄĿ": 9626,
      "DÄŀ": 9627,
      "DÄŁ": 9628,
      "DÄł": 9629,
      "DÄŃ": 9630,
      "DÅĢ": 9631,
      "DÅģ": 9632,
      "DÅĤ": 9633,
      "DÅĥ": 9634,
      "E!": 9635,
      "E\"": 9636,
      "E#": 9637,
      "E$": 9638,
      "E%": 9639,
      "E&": 9640,
      "E'": 9641,
      "E(": 9642,
      "E)": 9643,
      "E*": 9644,
      "E+": 9645,
      "E,": 9646,
      "E-": 9647,
      "E.": 9648,
      "E/": 9649,
      "E0": 9650,
      "E1": 9651,
      "E2": 9652,
      "E3": 9653,
      "E4": 9654,
      "E5": 9655,
      "E6": 9656,
      "E7": 9657,
      "E8": 9658,
      "E9": 9659,
      "E:": 9660,
      "E;": 9661,
      "E<": 9662,
      "E=": 9663,
      "E>": 9664,
      "E?": 9665,
      "E@": 9666,
      "EA": 9667,
      "EB": 9668,
      "EC": 9669,
      "ED": 9670,
      "EE": 9671,
      "EF": 9672,
      "EG": 9673,
      "EH": 9674,
      "EI": 9675,
      "EJ": 9676,
      "EK": 9677,
      "EL": 9678,
      "EM": 9679,
      "EN": 9680,
      "EO": 9681,
      "EP": 9682,
      "EQ": 9683,
      "ER": 9684,
      "ES": 9685,
      "ET": 9686,
      "EU": 9687,
      "EV": 9688,
      "EW": 9689,
      "EX": 9690,
      "EY": 9691,
      "EZ": 9692,
      "E[": 9693,
      "E\\": 9694,
      "E]": 9695,
      "E^": 9696,
      "E_": 9697,
      "E`": 9698,
      "Ea": 9699,
      "Eb": 9700,
      "Ec": 9701,
      "Ed": 9702,
      "Ee": 9703,
      "Ef": 9704,
      "Eg": 9705,
      "Eh": 9706,
      "Ei": 9707,
      "Ej": 9708,
      "Ek": 9709,
      "El": 9710,
      "Em": 9711,
      "En": 9712,
      "Eo": 9713,
      "Ep": 9714,
      "Eq": 9715,
      "Er": 9716,
      "Es": 9717,
      "Et": 9718,
      "Eu": 9719,
      "Ev": 9720,
      "Ew": 9721,
      "Ex": 9722,
      "Ey": 9723,
      "Ez": 9724,
      "E{": 9725,
      "E|": 9726,
      "E}": 9727,
      "E~": 9728,
      "EÂ¡": 9729,
      "EÂ¢": 9730,
      "EÂ£": 9731,
      "EÂ¤": 9732,
      "EÂ¥": 9733,
      "EÂ¦": 9734,
      "EÂ§": 9735,
      "EÂ¨": 9736,
      "EÂ©": 9737,
      "EÂª": 9738,
      "EÂ«": 9739,
      "EÂ¬": 9740,
      "EÂ®": 9741,
      "EÂ¯": 9742,
      "EÂ°": 9743,
      "EÂ±": 9744,
      "EÂ²": 9745,
      "EÂ³": 9746,
      "EÂ´": 9747,
      "EÂµ": 9748,
      "EÂ¶": 9749,
      "EÂ·": 9750,
      "EÂ¸": 9751,
      "EÂ¹": 9752,
      "EÂº": 9753,
      "EÂ»": 9754,
      "EÂ¼": 9755,
      "EÂ½": 9756,
      "EÂ¾": 9757,
      "EÂ¿": 9758,
      "EÃ¡": 9759,
      "EÃ¢": 9760,
      "EÃ£": 9761,
      "EÃ¤": 9762,
      "EÃ¥": 9763,
      "EÃ¦": 9764,
      "EÃ§": 9765,
      "EÃ¨": 9766,
      "EÃ©": 9767,
      "EÃª": 9768,
      "EÃ«": 9769,
      "EÃ¬": 9770,
      "EÃ®": 9771,
      "EÃ¯": 9772,
      "EÃ°": 9773,
      "EÃ±": 9774,
      "EÃ²": 9775,
      "EÃ³": 9776,
      "EÃ´": 9777,
      "EÃµ": 9778,
      "EÃ¶": 9779,
      "EÃ·": 9780,
      "EÃ¸": 9781,
      "EÃ¹": 9782,
      "EÃº": 9783,
      "EÃ»": 9784,
      "EÃ¼": 9785,
      "EÃ½": 9786,
      "EÃ¾": 9787,
      "EÃ¿": 9788,
      "EÃĢ": 9789,
      "EÃģ": 9790,
      "EÃĤ": 9791,
      "EÃĥ": 9792,
      "EÃĦ": 9793,
      "EÃħ": 9794,
      "EÃĨ": 9795,
      "EÃĩ": 9796,
      "EÃĪ": 9797,
      "EÃī": 9798,
      "EÃĬ": 9799,
      "EÃĭ": 9800,
      "EÃĮ": 9801,
      "EÃį": 9802,
      "EÃİ": 9803,
      "EÃı": 9804,
      "EÃĲ": 9805,
      "EÃĳ": 9806,
      "EÃĴ": 9807,
      "EÃĵ": 9808,
      "EÃĶ": 9809,
      "EÃķ": 9810,
      "EÃĸ": 9811,
      "EÃĹ": 9812,
      "EÃĺ": 9813,
      "EÃĻ": 9814,
      "EÃļ": 9815,
      "EÃĽ": 9816,
      "EÃľ": 9817,
      "EÃĿ": 9818,
      "EÃŀ": 9819,
      "EÃŁ": 9820,
      "EÃł": 9821,
      "EÃŃ": 9822,
      "EÄ¡": 9823,
      "EÄ¢": 9824,
      "EÄ£": 9825,
      "EÄ¤": 9826,
      "EÄ¥": 9827,
      "EÄ¦": 9828,
      "EÄ§": 9829,
      "EÄ¨": 9830,
      "EÄ©": 9831,
      "EÄª": 9832,
      "EÄ«": 9833,
      "EÄ¬": 9834,
      "EÄ®": 9835,
      "EÄ¯": 9836,
      "EÄ°": 9837,
      "EÄ±": 9838,
      "EÄ²": 9839,
      "EÄ³": 9840,
      "EÄ´": 9841,
      "EÄµ": 9842,
      "EÄ¶": 9843,
      "EÄ·": 9844,
      "EÄ¸": 9845,
      "EÄ¹": 9846,
      "EÄº": 9847,
      "EÄ»": 9848,
      "EÄ¼": 9849,
      "EÄ½": 9850,
      "EÄ¾": 9851,
      "EÄ¿": 9852,
      "EÄĢ": 9853,
      "EÄģ": 9854,
      "EÄĤ": 9855,
      "EÄĥ": 9856,
      "EÄĦ": 9857,
      "EÄħ": 9858,
      "EÄĨ": 9859,
      "EÄĩ": 9860,
      "EÄĪ": 9861,
      "EÄī": 9862,
      "EÄĬ": 9863,
      "EÄĭ": 9864,
      "EÄĮ": 9865,
      "EÄį": 9866,
      "EÄİ": 9867,
      "EÄı": 9868,
      "EÄĲ": 9869,
      "EÄĳ": 9870,
      "EÄĴ": 9871,
      "EÄĵ": 9872,
      "EÄĶ": 9873,
      "EÄķ": 9874,
      "EÄĸ": 9875,
      "EÄĹ": 9876,
      "EÄĺ": 9877,
      "EÄĻ": 9878,
      "EÄļ": 9879,
      "EÄĽ": 9880,
      "EÄľ": 9881,
      "EÄĿ": 9882,
      "EÄŀ": 9883,
      "EÄŁ": 9884,
      "EÄł": 9885,
      "EÄŃ": 9886,
      "EÅĢ": 9887,
      "EÅģ": 9888,
      "EÅĤ": 9889,
      "EÅĥ": 9890,
      "F!": 9891,
      "F\"": 9892,
      "F#": 9893,
      "F$": 9894,
      "F%": 9895,
      "F&": 9896,
      "F'": 9897,
      "F(": 9898,
      "F)": 9899,
      "F*": 9900,
      "F+": 9901,
      "F,": 9902,
      "F-": 9903,
      "F.": 9904,
      "F/": 9905,
      "F0": 9906,
      "F1": 9907,
      "F2": 9908,
      "F3": 9909,
      "F4": 9910,
      "F5": 9911,
      "F6": 9912,
      "F7": 9913,
      "F8": 9914,
      "F9": 9915,
      "F:": 9916,
      "F;": 9917,
      "F<": 9918,
      "F=": 9919,
      "F>": 9920,
      "F?": 9921,
      "F@": 9922,
      "FA": 9923,
      "FB": 9924,
      "FC": 9925,
      "FD": 9926,
      "FE": 9927,
      "FF": 9928,
      "FG": 9929,
      "FH": 9930,
      "FI": 9931,
      "FJ": 9932,
      "FK": 9933,
      "FL": 9934,
      "FM": 9935,
      "FN": 9936,
      "FO": 9937,
      "FP": 9938,
      "FQ": 9939,
      "FR": 9940,
      "FS": 9941,
      "FT": 9942,
      "FU": 9943,
      "FV": 9944,
      "FW": 9945,
      "FX": 9946,
      "FY": 9947,
      "FZ": 9948,
      "F[": 9949,
      "F\\": 9950,
      "F]": 9951,
      "F^": 9952,
      "F_": 9953,
      "F`": 9954,
      "Fa": 9955,
      "Fb": 9956,
      "Fc": 9957,
      "Fd": 9958,
      "Fe": 9959,
      "Ff": 9960,
      "Fg": 9961,
      "Fh": 9962,
      "Fi": 9963,
      "Fj": 9964,
      "Fk": 9965,
      "Fl": 9966,
      "Fm": 9967,
      "Fn": 9968,
      "Fo": 9969,
      "Fp": 9970,
      "Fq": 9971,
      "Fr": 9972,
      "Fs": 9973,
      "Ft": 9974,
      "Fu": 9975,
      "Fv": 9976,
      "Fw": 9977,
      "Fx": 9978,
      "Fy": 9979,
      "Fz": 9980,
      "F{": 9981,
      "F|": 9982,
      "F}": 9983,
      "F~": 9984,
      "FÂ¡": 9985,
      "FÂ¢": 9986,
      "FÂ£": 9987,
      "FÂ¤": 9988,
      "FÂ¥": 9989,
      "FÂ¦": 9990,
      "FÂ§": 9991,
      "FÂ¨": 9992,
      "FÂ©": 9993,
      "FÂª": 9994,
      "FÂ«": 9995,
      "FÂ¬": 9996,
      "FÂ®": 9997,
      "FÂ¯": 9998,
      "FÂ°": 9999,
      "FÂ±": 10000,
      "FÂ²": 10001,
      "FÂ³": 10002,
      "FÂ´": 10003,
      "FÂµ": 10004,
      "FÂ¶": 10005,
      "FÂ·": 10006,
      "FÂ¸": 10007,
      "FÂ¹": 10008,
      "FÂº": 10009,
      "FÂ»": 10010,
      "FÂ¼": 10011,
      "FÂ½": 10012,
      "FÂ¾": 10013,
      "FÂ¿": 10014,
      "FÃ¡": 10015,
      "FÃ¢": 10016,
      "FÃ£": 10017,
      "FÃ¤": 10018,
      "FÃ¥": 10019,
      "FÃ¦": 10020,
      "FÃ§": 10021,
      "FÃ¨": 10022,
      "FÃ©": 10023,
      "FÃª": 10024,
      "FÃ«": 10025,
      "FÃ¬": 10026,
      "FÃ®": 10027,
      "FÃ¯": 10028,
      "FÃ°": 10029,
      "FÃ±": 10030,
      "FÃ²": 10031,
      "FÃ³": 10032,
      "FÃ´": 10033,
      "FÃµ": 10034,
      "FÃ¶": 10035,
      "FÃ·": 10036,
      "FÃ¸": 10037,
      "FÃ¹": 10038,
      "FÃº": 10039,
      "FÃ»": 10040,
      "FÃ¼": 10041,
      "FÃ½": 10042,
      "FÃ¾": 10043,
      "FÃ¿": 10044,
      "FÃĢ": 10045,
      "FÃģ": 10046,
      "FÃĤ": 10047,
      "FÃĥ": 10048,
      "FÃĦ": 10049,
      "FÃħ": 10050,
      "FÃĨ": 10051,
      "FÃĩ": 10052,
      "FÃĪ": 10053,
      "FÃī": 10054,
      "FÃĬ": 10055,
      "FÃĭ": 10056,
      "FÃĮ": 10057,
      "FÃį": 10058,
      "FÃİ": 10059,
      "FÃı": 10060,
      "FÃĲ": 10061,
      "FÃĳ": 10062,
      "FÃĴ": 10063,
      "FÃĵ": 10064,
      "FÃĶ": 10065,
      "FÃķ": 10066,
      "FÃĸ": 10067,
      "FÃĹ": 10068,
      "FÃĺ": 10069,
      "FÃĻ": 10070,
      "FÃļ": 10071,
      "FÃĽ": 10072,
      "FÃľ": 10073,
      "FÃĿ": 10074,
      "FÃŀ": 10075,
      "FÃŁ": 10076,
      "FÃł": 10077,
      "FÃŃ": 10078,
      "FÄ¡": 10079,
      "FÄ¢": 10080,
      "FÄ£": 10081,
      "FÄ¤": 10082,
      "FÄ¥": 10083,
      "FÄ¦": 10084,
      "FÄ§": 10085,
      "FÄ¨": 10086,
      "FÄ©": 10087,
      "FÄª": 10088,
      "FÄ«": 10089,
      "FÄ¬": 10090,
      "FÄ®": 10091,
      "FÄ¯": 10092,
      "FÄ°": 10093,
      "FÄ±": 10094,
      "FÄ²": 10095,
      "FÄ³": 10096,
      "FÄ´": 10097,
      "FÄµ": 10098,
      "FÄ¶": 10099,
      "FÄ·": 10100,
      "FÄ¸": 10101,
      "FÄ¹": 10102,
      "FÄº": 10103,
      "FÄ»": 10104,
      "FÄ¼": 10105,
      "FÄ½": 10106,
      "FÄ¾": 10107,
      "FÄ¿": 10108,
      "FÄĢ": 10109,
      "FÄģ": 10110,
      "FÄĤ": 10111,
      "FÄĥ": 10112,
      "FÄĦ": 10113,
      "FÄħ": 10114,
      "FÄĨ": 10115,
      "FÄĩ": 10116,
      "FÄĪ": 10117,
      "FÄī": 10118,
      "FÄĬ": 10119,
      "FÄĭ": 10120,
      "FÄĮ": 10121,
      "FÄį": 10122,
      "FÄİ": 10123,
      "FÄı": 10124,
      "FÄĲ": 10125,
      "FÄĳ": 10126,
      "FÄĴ": 10127,
      "FÄĵ": 10128,
      "FÄĶ": 10129,
      "FÄķ": 10130,
      "FÄĸ": 10131,
      "FÄĹ": 10132,
      "FÄĺ": 10133,
      "FÄĻ": 10134,
      "FÄļ": 10135,
      "FÄĽ": 10136,
      "FÄľ": 10137,
      "FÄĿ": 10138,
      "FÄŀ": 10139,
      "FÄŁ": 10140,
      "FÄł": 10141,
      "FÄŃ": 10142,
      "FÅĢ": 10143,
      "FÅģ": 10144,
      "FÅĤ": 10145,
      "FÅĥ": 10146,
      "G!": 10147,
      "G\"": 10148,
      "G#": 10149,
      "G$": 10150,
      "G%": 10151,
      "G&": 10152,
      "G'": 10153,
      "G(": 10154,
      "G)": 10155,
      "G*": 10156,
      "G+": 10157,
      "G,": 10158,
      "G-": 10159,
      "G.": 10160,
      "G/": 10161,
      "G0": 10162,
      "G1": 10163,
      "G2": 10164,
      "G3": 10165,
      "G4": 10166,
      "G5": 10167,
      "G6": 10168,
      "G7": 10169,
      "G8": 10170,
      "G9": 10171,
      "G:": 10172,
      "G;": 10173,
      "G<": 10174,
      "G=": 10175,
      "G>": 10176,
      "G?": 10177,
      "G@": 10178,
      "GA": 10179,
      "GB": 10180,
      "GC": 10181,
      "GD": 10182,
      "GE": 10183,
      "GF": 10184,
      "GG": 10185,
      "GH": 10186,
      "GI": 10187,
      "GJ": 10188,
      "GK": 10189,
      "GL": 10190,
      "GM": 10191,
      "GN": 10192,
      "GO": 10193,
      "GP": 10194,
      "GQ": 10195,
      "GR": 10196,
      "GS": 10197,
      "GT": 10198,
      "GU": 10199,
      "GV": 10200,
      "GW": 10201,
      "GX": 10202,
      "GY": 10203,
      "GZ": 10204,
      "G[": 10205,
      "G\\": 10206,
      "G]": 10207,
      "G^": 10208,
      "G_": 10209,
      "G`": 10210,
      "Ga": 10211,
      "Gb": 10212,
      "Gc": 10213,
      "Gd": 10214,
      "Ge": 10215,
      "Gf": 10216,
      "Gg": 10217,
      "Gh": 10218,
      "Gi": 10219,
      "Gj": 10220,
      "Gk": 10221,
      "Gl": 10222,
      "Gm": 10223,
      "Gn": 10224,
      "Go": 10225,
      "Gp": 10226,
      "Gq": 10227,
      "Gr": 10228,
      "Gs": 10229,
      "Gt": 10230,
      "Gu": 10231,
      "Gv": 10232,
      "Gw": 10233,
      "Gx": 10234,
      "Gy": 10235,
      "Gz": 10236,
      "G{": 10237,
      "G|": 10238,
      "G}": 10239,
      "G~": 10240,
      "GÂ¡": 10241,
      "GÂ¢": 10242,
      "GÂ£": 10243,
      "GÂ¤": 10244,
      "GÂ¥": 10245,
      "GÂ¦": 10246,
      "GÂ§": 10247,
      "GÂ¨": 10248,
      "GÂ©": 10249,
      "GÂª": 10250,
      "GÂ«": 10251,
      "GÂ¬": 10252,
      "GÂ®": 10253,
      "GÂ¯": 10254,
      "GÂ°": 10255,
      "GÂ±": 10256,
      "GÂ²": 10257,
      "GÂ³": 10258,
      "GÂ´": 10259,
      "GÂµ": 10260,
      "GÂ¶": 10261,
      "GÂ·": 10262,
      "GÂ¸": 10263,
      "GÂ¹": 10264,
      "GÂº": 10265,
      "GÂ»": 10266,
      "GÂ¼": 10267,
      "GÂ½": 10268,
      "GÂ¾": 10269,
      "GÂ¿": 10270,
      "GÃ¡": 10271,
      "GÃ¢": 10272,
      "GÃ£": 10273,
      "GÃ¤": 10274,
      "GÃ¥": 10275,
      "GÃ¦": 10276,
      "GÃ§": 10277,
      "GÃ¨": 10278,
      "GÃ©": 10279,
      "GÃª": 10280,
      "GÃ«": 10281,
      "GÃ¬": 10282,
      "GÃ®": 10283,
      "GÃ¯": 10284,
      "GÃ°": 10285,
      "GÃ±": 10286,
      "GÃ²": 10287,
      "GÃ³": 10288,
      "GÃ´": 10289,
      "GÃµ": 10290,
      "GÃ¶": 10291,
      "GÃ·": 10292,
      "GÃ¸": 10293,
      "GÃ¹": 10294,
      "GÃº": 10295,
      "GÃ»": 10296,
      "GÃ¼": 10297,
      "GÃ½": 10298,
      "GÃ¾": 10299,
      "GÃ¿": 10300,
      "GÃĢ": 10301,
      "GÃģ": 10302,
      "GÃĤ": 10303,
      "GÃĥ": 10304,
      "GÃĦ": 10305,
      "GÃħ": 10306,
      "GÃĨ": 10307,
      "GÃĩ": 10308,
      "GÃĪ": 10309,
      "GÃī": 10310,
      "GÃĬ": 10311,
      "GÃĭ": 10312,
      "GÃĮ": 10313,
      "GÃį": 10314,
      "GÃİ": 10315,
      "GÃı": 10316,
      "GÃĲ": 10317,
      "GÃĳ": 10318,
      "GÃĴ": 10319,
      "GÃĵ": 10320,
      "GÃĶ": 10321,
      "GÃķ": 10322,
      "GÃĸ": 10323,
      "GÃĹ": 10324,
      "GÃĺ": 10325,
      "GÃĻ": 10326,
      "GÃļ": 10327,
      "GÃĽ": 10328,
      "GÃľ": 10329,
      "GÃĿ": 10330,
      "GÃŀ": 10331,
      "GÃŁ": 10332,
      "GÃł": 10333,
      "GÃŃ": 10334,
      "GÄ¡": 10335,
      "GÄ¢": 10336,
      "GÄ£": 10337,
      "GÄ¤": 10338,
      "GÄ¥": 10339,
      "GÄ¦": 10340,
      "GÄ§": 10341,
      "GÄ¨": 10342,
      "GÄ©": 10343,
      "GÄª": 10344,
      "GÄ«": 10345,
      "GÄ¬": 10346,
      "GÄ®": 10347,
      "GÄ¯": 10348,
      "GÄ°": 10349,
      "GÄ±": 10350,
      "GÄ²": 10351,
      "GÄ³": 10352,
      "GÄ´": 10353,
      "GÄµ": 10354,
      "GÄ¶": 10355,
      "GÄ·": 10356,
      "GÄ¸": 10357,
      "GÄ¹": 10358,
      "GÄº": 10359,
      "GÄ»": 10360,
      "GÄ¼": 10361,
      "GÄ½": 10362,
      "GÄ¾": 10363,
      "GÄ¿": 10364,
      "GÄĢ": 10365,
      "GÄģ": 10366,
      "GÄĤ": 10367,
      "GÄĥ": 10368,
      "GÄĦ": 10369,
      "GÄħ": 10370,
      "GÄĨ": 10371,
      "GÄĩ": 10372,
      "GÄĪ": 10373,
      "GÄī": 10374,
      "GÄĬ": 10375,
      "GÄĭ": 10376,
      "GÄĮ": 10377,
      "GÄį": 10378,
      "GÄİ": 10379,
      "GÄı": 10380,
      "GÄĲ": 10381,
      "GÄĳ": 10382,
      "GÄĴ": 10383,
      "GÄĵ": 10384,
      "GÄĶ": 10385,
      "GÄķ": 10386,
      "GÄĸ": 10387,
      "GÄĹ": 10388,
      "GÄĺ": 10389,
      "GÄĻ": 10390,
      "GÄļ": 10391,
      "GÄĽ": 10392,
      "GÄľ": 10393,
      "GÄĿ": 10394,
      "GÄŀ": 10395,
      "GÄŁ": 10396,
      "GÄł": 10397,
      "GÄŃ": 10398,
      "GÅĢ": 10399,
      "GÅģ": 10400,
      "GÅĤ": 10401,
      "GÅĥ": 10402,
      "H!": 10403,
      "H\"": 10404,
      "H#": 10405,
      "H$": 10406,
      "H%": 10407,
      "H&": 10408,
      "H'": 10409,
      "H(": 10410,
      "H)": 10411,
      "H*": 10412,
      "H+": 10413,
      "H,": 10414,
      "H-": 10415,
      "H.": 10416,
      "H/": 10417,
      "H0": 10418,
      "H1": 10419,
      "H2": 10420,
      "H3": 10421,
      "H4": 10422,
      "H5": 10423,
      "H6": 10424,
      "H7": 10425,
      "H8": 10426,
      "H9": 10427,
      "H:": 10428,
      "H;": 10429,
      "H<": 10430,
      "H=": 10431,
      "H>": 10432,
      "H?": 10433,
      "H@": 10434,
      "HA": 10435,
      "HB": 10436,
      "HC": 10437,
      "HD": 10438,
      "HE": 10439,
      "HF": 10440,
      "HG": 10441,
      "HH": 10442,
      "HI": 10443,
      "HJ": 10444,
      "HK": 10445,
      "HL": 10446,
      "HM": 10447,
      "HN": 10448,
      "HO": 10449,
      "HP": 10450,
      "HQ": 10451,
      "HR": 10452,
      "HS": 10453,
      "HT": 10454,
      "HU": 10455,
      "HV": 10456,
      "HW": 10457,
      "HX": 10458,
      "HY": 10459,
      "HZ": 10460,
      "H[": 10461,
      "H\\": 10462,
      "H]": 10463,
      "H^": 10464,
      "H_": 10465,
      "H`": 10466,
      "Ha": 10467,
      "Hb": 10468,
      "Hc": 10469,
      "Hd": 10470,
      "He": 10471,
      "Hf": 10472,
      "Hg": 10473,
      "Hh": 10474,
      "Hi": 10475,
      "Hj": 10476,
      "Hk": 10477,
      "Hl": 10478,
      "Hm": 10479,
      "Hn": 10480,
      "Ho": 10481,
      "Hp": 10482,
      "Hq": 10483,
      "Hr": 10484,
      "Hs": 10485,
      "Ht": 10486,
      "Hu": 10487,
      "Hv": 10488,
      "Hw": 10489,
      "Hx": 10490,
      "Hy": 10491,
      "Hz": 10492,
      "H{": 10493,
      "H|": 10494,
      "H}": 10495,
      "H~": 10496,
      "HÂ¡": 10497,
      "HÂ¢": 10498,
      "HÂ£": 10499,
      "HÂ¤": 10500,
      "HÂ¥": 10501,
      "HÂ¦": 10502,
      "HÂ§": 10503,
      "HÂ¨": 10504,
      "HÂ©": 10505,
      "HÂª": 10506,
      "HÂ«": 10507,
      "HÂ¬": 10508,
      "HÂ®": 10509,
      "HÂ¯": 10510,
      "HÂ°": 10511,
      "HÂ±": 10512,
      "HÂ²": 10513,
      "HÂ³": 10514,
      "HÂ´": 10515,
      "HÂµ": 10516,
      "HÂ¶": 10517,
      "HÂ·": 10518,
      "HÂ¸": 10519,
      "HÂ¹": 10520,
      "HÂº": 10521,
      "HÂ»": 10522,
      "HÂ¼": 10523,
      "HÂ½": 10524,
      "HÂ¾": 10525,
      "HÂ¿": 10526,
      "HÃ¡": 10527,
      "HÃ¢": 10528,
      "HÃ£": 10529,
      "HÃ¤": 10530,
      "HÃ¥": 10531,
      "HÃ¦": 10532,
      "HÃ§": 10533,
      "HÃ¨": 10534,
      "HÃ©": 10535,
      "HÃª": 10536,
      "HÃ«": 10537,
      "HÃ¬": 10538,
      "HÃ®": 10539,
      "HÃ¯": 10540,
      "HÃ°": 10541,
      "HÃ±": 10542,
      "HÃ²": 10543,
      "HÃ³": 10544,
      "HÃ´": 10545,
      "HÃµ": 10546,
      "HÃ¶": 10547,
      "HÃ·": 10548,
      "HÃ¸": 10549,
      "HÃ¹": 10550,
      "HÃº": 10551,
      "HÃ»": 10552,
      "HÃ¼": 10553,
      "HÃ½": 10554,
      "HÃ¾": 10555,
      "HÃ¿": 10556,
      "HÃĢ": 10557,
      "HÃģ": 10558,
      "HÃĤ": 10559,
      "HÃĥ": 10560,
      "HÃĦ": 10561,
      "HÃħ": 10562,
      "HÃĨ": 10563,
      "HÃĩ": 10564,
      "HÃĪ": 10565,
      "HÃī": 10566,
      "HÃĬ": 10567,
      "HÃĭ": 10568,
      "HÃĮ": 10569,
      "HÃį": 10570,
      "HÃİ": 10571,
      "HÃı": 10572,
      "HÃĲ": 10573,
      "HÃĳ": 10574,
      "HÃĴ": 10575,
      "HÃĵ": 10576,
      "HÃĶ": 10577,
      "HÃķ": 10578,
      "HÃĸ": 10579,
      "HÃĹ": 10580,
      "HÃĺ": 10581,
      "HÃĻ": 10582,
      "HÃļ": 10583,
      "HÃĽ": 10584,
      "HÃľ": 10585,
      "HÃĿ": 10586,
      "HÃŀ": 10587,
      "HÃŁ": 10588,
      "HÃł": 10589,
      "HÃŃ": 10590,
      "HÄ¡": 10591,
      "HÄ¢": 10592,
      "HÄ£": 10593,
      "HÄ¤": 10594,
      "HÄ¥": 10595,
      "HÄ¦": 10596,
      "HÄ§": 10597,
      "HÄ¨": 10598,
      "HÄ©": 10599,
      "HÄª": 10600,
      "HÄ«": 10601,
      "HÄ¬": 10602,
      "HÄ®": 10603,
      "HÄ¯": 10604,
      "HÄ°": 10605,
      "HÄ±": 10606,
      "HÄ²": 10607,
      "HÄ³": 10608,
      "HÄ´": 10609,
      "HÄµ": 10610,
      "HÄ¶": 10611,
      "HÄ·": 10612,
      "HÄ¸": 10613,
      "HÄ¹": 10614,
      "HÄº": 10615,
      "HÄ»": 10616,
      "HÄ¼": 10617,
      "HÄ½": 10618,
      "HÄ¾": 10619,
      "HÄ¿": 10620,
      "HÄĢ": 10621,
      "HÄģ": 10622,
      "HÄĤ": 10623,
      "HÄĥ": 10624,
      "HÄĦ": 10625,
      "HÄħ": 10626,
      "HÄĨ": 10627,
      "HÄĩ": 10628,
      "HÄĪ": 10629,
      "HÄī": 10630,
      "HÄĬ": 10631,
      "HÄĭ": 10632,
      "HÄĮ": 10633,
      "HÄį": 10634,
      "HÄİ": 10635,
      "HÄı": 10636,
      "HÄĲ": 10637,
      "HÄĳ": 10638,
      "HÄĴ": 10639,
      "HÄĵ": 10640,
      "HÄĶ": 10641,
      "HÄķ": 10642,
      "HÄĸ": 10643,
      "HÄĹ": 10644,
      "HÄĺ": 10645,
      "HÄĻ": 10646,
      "HÄļ": 10647,
      "HÄĽ": 10648,
      "HÄľ": 10649,
      "HÄĿ": 10650,
      "HÄŀ": 10651,
      "HÄŁ": 10652,
      "HÄł": 10653,
      "HÄŃ": 10654,
      "HÅĢ": 10655,
      "HÅģ": 10656,
      "HÅĤ": 10657,
      "HÅĥ": 10658,
      "I!": 10659,
      "I\"": 10660,
      "I#": 10661,
      "I$": 10662,
      "I%": 10663,
      "I&": 10664,
      "I'": 10665,
      "I(": 10666,
      "I)": 10667,
      "I*": 10668,
      "I+": 10669,
      "I,": 10670,
      "I-": 10671,
      "I.": 10672,
      "I/": 10673,
      "I0": 10674,
      "I1": 10675,
      "I2": 10676,
      "I3": 10677,
      "I4": 10678,
      "I5": 10679,
      "I6": 10680,
      "I7": 10681,
      "I8": 10682,
      "I9": 10683,
      "I:": 10684,
      "I;": 10685,
      "I<": 10686,
      "I=": 10687,
      "I>": 10688,
      "I?": 10689,
      "I@": 10690,
      "IA": 10691,
      "IB": 10692,
      "IC": 10693,
      "ID": 10694,
      "IE": 10695,
      "IF": 10696,
      "IG": 10697,
      "IH": 10698,
      "II": 10699,
      "IJ": 10700,
      "IK": 10701,
      "IL": 10702,
      "IM": 10703,
      "IN": 10704,
      "IO": 10705,
      "IP": 10706,
      "IQ": 10707,
      "IR": 10708,
      "IS": 10709,
      "IT": 10710,
      "IU": 10711,
      "IV": 10712,
      "IW": 10713,
      "IX": 10714,
      "IY": 10715,
      "IZ": 10716,
      "I[": 10717,
      "I\\": 10718,
      "I]": 10719,
      "I^": 10720,
      "I_": 10721,
      "I`": 10722,
      "Ia": 10723,
      "Ib": 10724,
[...]
